/**
  ******************************************************************************
  * @file    network_data_params.c
  * @author  AST Embedded Analytics Research Platform
  * @date    2026-03-21T00:26:48+0800
  * @brief   AI Tool Automatic Code Generator for Embedded NN computing
  ******************************************************************************
  * Copyright (c) 2026 STMicroelectronics.
  * All rights reserved.
  *
  * This software is licensed under terms that can be found in the LICENSE file
  * in the root directory of this software component.
  * If no LICENSE file comes with this software, it is provided AS-IS.
  ******************************************************************************
  */

#include "network_data_params.h"


/**  Activations Section  ****************************************************/
ai_handle g_network_activations_table[1 + 2] = {
  AI_HANDLE_PTR(AI_MAGIC_MARKER),
  AI_HANDLE_PTR(NULL),
  AI_HANDLE_PTR(AI_MAGIC_MARKER),
};




/**  Weights Section  ********************************************************/
AI_ALIGNED(32)
const ai_u64 s_network_weights_array_u64[11057] = {
  0x412f763d412800e3U, 0x4150ce7f4144af40U, 0x416892b5415e0202U, 0x4178647f4171cee6U,
  0x4180e151417f6897U, 0x41830f1041821fbfU, 0x41863e2d4184f6e4U, 0x41867f4441863721U,
  0x41865eaf4186ae21U, 0x4186275341874791U, 0x4187207f41859864U, 0x41842924418482afU,
  0x4182717441822b0fU, 0x4182165f4181a980U, 0x418202ff4181dcbcU, 0x4182946f4182a281U,
  0x4183582f4182f2fcU, 0x418446314183a6ffU, 0x4184f0544184cddcU, 0x418471f141852333U,
  0x4184ecd141855283U, 0x418410144184cd84U, 0x418352534183a33cU, 0x418398f14183ab9fU,
  0x41852ea0418432a1U, 0x41858cc441858c24U, 0x4186b3844185aee1U, 0x4187a7f041874701U,
  0x41888c9d4188435fU, 0x4188a93f41889b7fU, 0x418850e4418895afU, 0x418750244187e4e0U,
  0x4185dfdf41868094U, 0x4184bc7c4184feefU, 0x4184abcf4184d71fU, 0x4183e6df41842dd3U,
  0x41828cb1418346b1U, 0x417f657941818910U, 0x41705e8241794386U, 0x415c4479416634b7U,
  0x3e8dd15d3e9d28b2U, 0x3e8b42003e89c974U, 0x3e8530b43e8960dfU, 0x3e781a213e80e640U,
  0x3e750e5f3e740f9fU, 0x3e769a623e785e1eU, 0x3e71f8173e734277U, 0x3e70a4693e71c081U,
  0x3e72c5a63e70d8a9U, 0x3e71b9bf3e7333a6U, 0x3e7035173e6fcbbfU, 0x3e753fa63e71ffffU,
  0x3e78f63e3e779de9U, 0x3e7a1a1f3e7a6442U, 0x3e7a45693e799f37U, 0x3e7e4af73e7be3dfU,
  0x3e7fac023e7ece81U, 0x3e816ab43e80caffU, 0x3e82299f3e81f161U, 0x3e840ba13e838953U,
  0x3e859f343e851f9cU, 0x3e89a1b13e878ec0U, 0x3e8d132f3e8b1d01U, 0x3e8f7b613e8da541U,
  0x3e8e873c3e8f0894U, 0x3e8f67d23e8e7f2fU, 0x3e8e62123e8f64f4U, 0x3e8e7ac13e8dd232U,
  0x3e8ffefd3e8f60f2U, 0x3e90c11f3e9062ffU, 0x3e925ece3e91b754U, 0x3e95743d3e93e5aeU,
  0x3e9a30733e98003fU, 0x3e9c7f7f3e9c6f5fU, 0x3e99213d3e9a8143U, 0x3e954f433e986863U,
  0x3e8f57013e92ee12U, 0x3e86839d3e8a83ffU, 0x3e825e143e844180U, 0x3e7bb6493e7e2049U,
  0xbe8f599cbe8d5c92U, 0x80000000U, 0x0U, 0x8000000080000000U,
  0x8000000080000000U, 0x80000000U, 0x80000000U, 0x8000000000000000U,
  0x80000000U, 0x0U, 0x8000000080000000U, 0x80000000U,
  0x8000000000000000U, 0x8000000080000000U, 0x8000000080000000U, 0x80000000U,
  0x80000000U, 0x8000000000000000U, 0x8000000000000000U, 0x80000000U,
  0x80000000U, 0x3abd86c03c1846e3U, 0xbc18eec2bc141b84U, 0xbbf6619dbc0b47dfU,
  0xba08e6a4bb82846cU, 0x3ac1f8c53b945d32U, 0x39bce46b3b96dafeU, 0xbbd48295bbd2ff62U,
  0xbbd45cfabbd3a0cfU, 0x3a874561bba198eeU, 0x3b607abf3a44f444U, 0x3b9126383b994202U,
  0xbbce476abbd413d4U, 0xbbd44a00bbc605b9U, 0x3b019994bbd7b303U, 0x3b2bf57e3b68266cU,
  0xb7e248a7b9912194U, 0xbbd558e2bbd1c6b7U, 0xbbde0d99bbd2a778U, 0xbb88885bbb908a52U,
  0xba19180cbb61d799U, 0x0U, 0x0U, 0x0U,
  0x0U, 0x8000000000000000U, 0x0U, 0x80000000U,
  0x80000000U, 0x0U, 0x8000000000000000U, 0x8000000000000000U,
  0x8000000080000000U, 0x0U, 0x0U, 0x8000000000000000U,
  0x8000000000000000U, 0x80000000U, 0x0U, 0x0U,
  0x0U, 0xbbe6b9573ae41eebU, 0x3b3fd6393bc7cb28U, 0xb6dcccd63bcb2c26U,
  0x3c15645d3a9b5be1U, 0x3b6ac9c03b65dfe5U, 0xbbffa20dbadb83c7U, 0x3aea2add3b55ae67U,
  0xbb3b24413b09dfcaU, 0x3bd0ceffb8c8711bU, 0x3b7362f7b7eb7307U, 0xbba4ca3aba633d94U,
  0x39d7393c3b8420ecU, 0xbb8db0073a693160U, 0x3b999043bb76d577U, 0x3b810388bb78bf14U,
  0xbc929c0dbc70ffe6U, 0xbc140a95bc0b882fU, 0xbc9c79debc3bf9e6U, 0xbc4a4147bc8bdc4fU,
  0xbc278498bc6323deU, 0xbba7f606bbd11884U, 0xbbb64909bbd886e4U, 0xbb66fd42bbb1cf2bU,
  0xbb3aaf9cbb26b9d5U, 0xbc079a77bb684d18U, 0xbbd8e730bc085051U, 0xbbd9a4a8bc01651fU,
  0xbbdb8c5abbf00cacU, 0xbbccd27ebbc6437bU, 0xbc1e71d4bbea10aeU, 0xbbcebb76bc36fdffU,
  0xbbdd8c73bc096256U, 0xbc0a9573bc099628U, 0xbc0e8a72bbdf6ed9U, 0xbc61be39bc0ba7acU,
  0xbb87be23bb235d03U, 0xbc48c607bb352802U, 0xbbbd878d3bd5b8d3U, 0x3c3a27b93c0411f5U,
  0x3ac96118bb4a952aU, 0x80000000U, 0x0U, 0x80000000U,
  0x8000000080000000U, 0x80000000U, 0x8000000000000000U, 0x8000000080000000U,
  0x8000000080000000U, 0x0U, 0x8000000080000000U, 0x80000000U,
  0x8000000000000000U, 0x0U, 0x0U, 0x0U,
  0x0U, 0x8000000000000000U, 0x8000000080000000U, 0x0U,
  0x8000000080000000U, 0x3aa62b9c3bac176bU, 0x3b00d7e63b8a0f34U, 0x3c508d6439b30befU,
  0xbbf6192c3be06552U, 0x3b1b4cc53bd3294fU, 0x3b995e6dbb612dd9U, 0x3b4b5081bb509acbU,
  0x3c5a2ed8bbaa56c8U, 0xbba7675f3b3c67e4U, 0x3aab20af3bb04ee6U, 0x3b7d2393bb3522f6U,
  0x3acafa32ba9c9dc6U, 0x3c543eb0babfb911U, 0xbc27e96d3a875956U, 0x3a816c913b61975bU,
  0xbb342f1e3a1b6abfU, 0xba8e5f74bb78e211U, 0x3c13724fbbbe2d82U, 0xbbc1f831bb2b53dcU,
  0xbb5d6a943bae0818U, 0xbb68ead1bab93eefU, 0x3bb0adf23b208c8cU, 0x3bca5a523b92b8d7U,
  0x3b7695093bb32935U, 0xba1f306e3be2aafeU, 0xbc38eedabc2b5205U, 0xbbb8cc90bbd8bca8U,
  0xbb9edc84bbe28dd7U, 0xbbdac80dbb9cd037U, 0xbc2094263873a2bfU, 0xbba1d5f2bbfca035U,
  0xb9c37db2ba2927fcU, 0xba1b464dbb284b9cU, 0xbbddb13cbacf10a5U, 0xbc75cfacbae5ff04U,
  0x394d34c6b9a12bf4U, 0x3b6aecef3b7a14b8U, 0x3b62c59b3b1bac12U, 0xbb145ba63b3afb10U,
  0xbc3799203ae017daU, 0x8000000080000000U, 0x8000000080000000U, 0x8000000080000000U,
  0x8000000080000000U, 0x8000000080000000U, 0x8000000080000000U, 0x0U,
  0x0U, 0x0U, 0x80000000U, 0x8000000080000000U,
  0x8000000080000000U, 0x8000000080000000U, 0x8000000080000000U, 0x8000000080000000U,
  0x8000000080000000U, 0x8000000080000000U, 0x0U, 0x0U,
  0x8000000080000000U, 0x0U, 0x0U, 0x0U,
  0x8000000080000000U, 0x8000000080000000U, 0x8000000080000000U, 0x8000000000000000U,
  0x8000000080000000U, 0x8000000080000000U, 0x8000000080000000U, 0x8000000080000000U,
  0x8000000000000000U, 0x8000000080000000U, 0x0U, 0x8000000000000000U,
  0x8000000080000000U, 0x80000000U, 0x8000000080000000U, 0x0U,
  0x8000000000000000U, 0xbb604686bbf86e72U, 0x3b895dc5bb05b4d9U, 0x3c27ade63af1e9d8U,
  0x3a86825d3cb08a15U, 0x3ac7a8513b3b9b66U, 0x3aa5f3943a316c7fU, 0x3b602d7d39c79017U,
  0x3bb678eaba6d0879U, 0x3c2987333d10fa25U, 0x3b764c6bbb5e875aU, 0xbbcb27fdba3c661dU,
  0xbc06c60ebbd8aa14U, 0x3ad3df1cbc34af04U, 0xbbde839d3c8f1e91U, 0xbb703de63b806438U,
  0x3c03c5963b5d0c67U, 0x3bb8f27a3c109baeU, 0xbb2acdc93a4ae790U, 0xbaabce403cafba60U,
  0xbbe206b1bb01c8edU, 0x8000000000000000U, 0x8000000080000000U, 0x0U,
  0x0U, 0x0U, 0x8000000000000000U, 0x80000000U,
  0x8000000080000000U, 0x8000000000000000U, 0x8000000000000000U, 0x8000000080000000U,
  0x80000000U, 0x80000000U, 0x8000000080000000U, 0x0U,
  0x8000000080000000U, 0x8000000080000000U, 0x0U, 0x0U,
  0x8000000000000000U, 0x8000000080000000U, 0x8000000080000000U, 0x8000000000000000U,
  0x8000000080000000U, 0x80000000U, 0x8000000000000000U, 0x0U,
  0x0U, 0x0U, 0x0U, 0x80000000U,
  0x8000000080000000U, 0x80000000U, 0x80000000U, 0x8000000080000000U,
  0x8000000080000000U, 0x8000000080000000U, 0x8000000080000000U, 0x80000000U,
  0x8000000000000000U, 0x3b24d7aa3cc0411eU, 0x3be1dd953af09b70U, 0x3b81b4e73b790b29U,
  0xbbde56a3ba2a7d99U, 0xbb378cdbbb204078U, 0x3ba744793cfdbcddU, 0x3c282d2f3bafdc32U,
  0x3b66709a3b6d423dU, 0xbbc668c03b1a1b90U, 0x3a0fa6b3ba3b74c6U, 0xb9cb85493cdc8377U,
  0xbb9a22153ae3058fU, 0xbbe51ed0bbec73c1U, 0xbadfbf3cba82e0f8U, 0xbb9c78ac3b844828U,
  0xbba240043cc9163eU, 0xbb97a3b23acee792U, 0xbb73c391bb1ce560U, 0x3b6245dcbb780447U,
  0x3ae1ca91bb2e7853U, 0xbbad10ecbbbfeba7U, 0xbbdf5fc2bc33c62eU, 0xbc351abbbbc4ac7aU,
  0xbae5a51abbd5dc01U, 0xbc467785bc67a1c6U, 0x3aa405973a268a05U, 0xb97834bcbae36688U,
  0xbb5b8ea03ab17fe1U, 0x3b9c5829b9968e41U, 0xbbbccd12bbdb094eU, 0x3a2a2b383b287e05U,
  0xbac38f30bab99c71U, 0xbbbcdcb9b9896255U, 0xba7aa443bb8fdf02U, 0xbc081719bc293e6fU,
  0x3b41087e3bb72699U, 0x3a5871273af7ce1eU, 0xbaa12bf53b583e1dU, 0x3b8ae372ba9b3db5U,
  0xbb4a4dd9bb9258c2U, 0x3b615e413b597c18U, 0x3a91781fbb791b1bU, 0xbbf47b7cbbe70cd5U,
  0xbae725143c5fd85eU, 0xbc0cfd26bbb45d78U, 0xbb4db7163a600b14U, 0x3b97a0ed3bb474b3U,
  0x3b66c34bbc28be46U, 0x3a1f8c0b3cb969daU, 0xbad5cb06bc51cb52U, 0xb98ad453ba9204abU,
  0xbbe844e0bb933ecdU, 0x3c6f775cbc59e6b4U, 0x3ca46e8d3ce78ce3U, 0xbb22dbefbb2d49dbU,
  0xbae4034b3aa64afaU, 0x3b05fd9e3c49bbb1U, 0x3d241175bbb7684aU, 0x3cfb7e3f3d53ff18U,
  0x3c85a0583c8d83dfU, 0x3a72c0183c9e8027U, 0x3c65b2e63c82aae6U, 0x3c255e733cd64b39U,
  0xbc222b5c3c73d667U, 0x3aae12a6bad7f369U, 0xbbb1f7b43cb619f3U, 0x3b8dc7d3bb86fe8cU,
  0x380a51ef3cab275fU, 0xbba79b063b815d91U, 0x3b4756bebc4f8b98U, 0x3be2e7713cae133fU,
  0xba67ff7f3a59a2afU, 0xbaa0b51f3c11bb61U, 0xbc99b779bc02e331U, 0xbbcb3f48bc226f94U,
  0xbbba89903caefbfbU, 0x3bc8c0e43b036ab1U, 0xbbeeb6983c840d00U, 0xbcc8d704bc4d3913U,
  0xbb8545cfbcaad083U, 0xbaada823bc57eaedU, 0xbc7f79f63b095bd6U, 0x3bfa717f3b92049bU,
  0xbac33d9f3b332f99U, 0xbaf71b7d3c27e0e8U, 0xbc1fb4bcbc9dce0fU, 0xbd06a427bc47cfd3U,
  0xbc862d5bbc745aabU, 0xbcc67fa4bcb55f6aU, 0xbcd64febbc4b8b07U, 0x3c1d22e03c24841aU,
  0xbc5db7c53c1b90d8U, 0x3b6143693b4546fcU, 0xbb8b3923baccc93bU, 0xbb9478e03c4e8791U,
  0x3c8952003bcf571dU, 0xbb8579003c8af9cfU, 0x3c1840723c3d12a1U, 0x3b1c34ce3bc5884eU,
  0x3b153b9f3c48f4c1U, 0xba3ec5673ae27b02U, 0xbabbf597ba799bc7U, 0xbb0d4044bab12661U,
  0xbbe75d53bb7dccd4U, 0x3c43e868382745b6U, 0x3abe65833b5d5609U, 0x3b2e6b5d3a5b86a8U,
  0xb9c04157baf0c6aeU, 0xb929809d3bb48d6aU, 0x3c85fb763b7eb341U, 0x38eac5453b193e72U,
  0xbb1b75ed3b6da48dU, 0x3bb904e03b5d00d8U, 0x3ab337cb3ba1ac70U, 0x3c6946643b30d0c4U,
  0xbb423c0d3a30699dU, 0x3b3ecd2dbb3e02ebU, 0xba546270bb579e37U, 0xbbc12981ba40927cU,
  0x3c63122dbba6bc70U, 0xbcda79f5bc25dd12U, 0xbd04eb11bca24a47U, 0x3d012eef3d4bfb87U,
  0xbcb6412bbd7f4a82U, 0x3c4ceb5cbca9d132U, 0x3c248fccba09810aU, 0x3c05e6973bdb6e9dU,
  0x3c93bd993d6ddda6U, 0x3ccfb360bd9fd137U, 0x3ca66bcdbca10f10U, 0x3d173ae83b250c07U,
  0x3cb0d7983c0420e8U, 0x3d451f553ddce6b5U, 0x3d23ec02bd93c8b0U, 0x3ae5bff73cb26b0fU,
  0xbb0a29dc3a17d853U, 0xbc28a5d5bd2b03ccU, 0x3c8d118e3db99ad3U, 0x3c5578bbbd639022U,
  0xbc8759073ca6ab2dU, 0x3c03b6893c154b63U, 0x3c720ddc3c62212bU, 0x3d426de73b9912b9U,
  0x3c15745d3c18d70fU, 0x3bacd3e53c3faa3cU, 0xbba0bfc93b9b916cU, 0xbb34b92ebc131286U,
  0x3d3ece253b810009U, 0xbc6f6676bb2a90d4U, 0x3c37702e3bb507a4U, 0xbb4a5fc1bc02f266U,
  0xbc12aa82bc04fbe1U, 0x3cd01c9ebc1409b2U, 0xbbdaff25bb097dbbU, 0x3a93cd9abc2b5b4dU,
  0x3b3a98e7bac3e123U, 0x38c8b44bbb82254dU, 0x3d11de76bb65f162U, 0xba2f24f9bb0b2105U,
  0xbc337588bb77c0f5U, 0x0U, 0x0U, 0x8000000000000000U,
  0x80000000U, 0x0U, 0x0U, 0x0U,
  0x1d35fd000000000U, 0x80ae987280a7bdbdU, 0x8513800a86fcaU, 0x80000000U,
  0x0U, 0x2ce6a1100000000U, 0x8290acc281f56eb5U, 0x80c8a1a202605166U,
  0x80000000U, 0x0U, 0x46e28ec00000000U, 0x43fb46a039566adU,
  0x274e15382eff015U, 0x0U, 0x80000000U, 0x80000000U,
  0x8000000000000000U, 0x8000000080000000U, 0x8000000000000000U, 0x8000000080000000U,
  0x8000000080000000U, 0x8000000080000000U, 0x8000000080000000U, 0x8000000080000000U,
  0x0U, 0x8000000000000000U, 0x0U, 0x0U,
  0x8000000080000000U, 0x80000000U, 0x0U, 0x0U,
  0x0U, 0x8000000000000000U, 0x8000000080000000U, 0x8000000080000000U,
  0x8000000080000000U, 0x0U, 0x0U, 0x0U,
  0x0U, 0x80000000U, 0x0U, 0x0U,
  0x0U, 0x8000000000000000U, 0x80000000U, 0x0U,
  0x0U, 0x8000000000000000U, 0x80000000U, 0x0U,
  0x0U, 0x3c0737d63bd4f511U, 0xbbdda215bab31b1cU, 0x3b78f88ebb9735dbU,
  0x3acc6d73bb05dd7cU, 0x3a408e883b227e9bU, 0x3bf8cfe53b632540U, 0xbc160cd1bc0e5d9dU,
  0xbbb63901bc14443cU, 0xbc5256d5bbe16460U, 0xbcb5dbc3bc813eb5U, 0x3c1437bd3c73f440U,
  0xbb24df843bcfc572U, 0xbb049e68bb9550c3U, 0xbc402936bb89eff3U, 0xbc9623ebbc72aac1U,
  0x3c5ad2323b341c95U, 0xbb6fe939bafa2a07U, 0xbb91bba03bebbb77U, 0xbc4fe0b8bb8b27dfU,
  0xbcb7bcc6bc831374U, 0xbce182d8bc33cba3U, 0xbc9ce9e0bcc76a4eU, 0xbd866119bc7a25a9U,
  0xbbe2748d3b0631c9U, 0xbcecc84cbb9207fcU, 0x3a9a0c0ab9ad8aafU, 0x3add78613c90d890U,
  0xbd0db37a3bc612e9U, 0x3cf98dd2ba9dd00bU, 0xbc3fe5593bdfcb6dU, 0x3b540bbc3c6deab0U,
  0xba7ecf073cdbafe9U, 0xbcf1bc263c74b2aaU, 0x3d11cba83d06897eU, 0x3baef0e1bbb5b3f7U,
  0x3c65ca673c07f5e8U, 0xbc37508fbbee9075U, 0xbceffe0bbc33552aU, 0x3d163ef83c637e41U,
  0x3b464071bb9cec75U, 0xbc5fc164bc3316abU, 0xbce4362fbc40c3beU, 0xbc44c0a1bc11ced8U,
  0x3c6bb88abb61cc37U, 0xbbf043a3bc06074dU, 0xbc2254d43bb2be69U, 0xbceaa7c3baa0ab34U,
  0x3b980dfbbb21700eU, 0x3ca497da3c04edbcU, 0x3b19ec53bb0f48adU, 0x3c0e6beb3b6e1977U,
  0xbca825713c4c84f9U, 0xb966b809b99636daU, 0x3c8e3b883c1b6f03U, 0xbb65cf223c1b7bd4U,
  0x3bf040fb3c2f615bU, 0xbc976472bac6a7b1U, 0x3c005502bbd287e4U, 0x3c41106f3c16f86cU,
  0xbae1cfcabb7cfb05U, 0x396f0badbcb5180bU, 0xbc602e58bc467659U, 0xbb3b701d3c1a2494U,
  0x3ba5d1edbcc8c598U, 0x3cc381a3bc8f5efcU, 0x3be8e6ddbc46439fU, 0xbbf020ee3b85a18bU,
  0xbcd8698b3ca53e2bU, 0x3c41ae7ebc98a0bbU, 0x3d16a4803b309dc3U, 0x3c1d31c03b696ec5U,
  0xbb7ee07b3c7c9cf3U, 0xbd26587d3b91675dU, 0x3ca40ca7bbb95415U, 0x3cd074e33ca91d20U,
  0x3cc584353c85eef3U, 0x3be1ad39bad76303U, 0xbd35a7b2bc6971baU, 0x3c6d81b6ba199dc0U,
  0x3cdb26ae3c16dbd8U, 0x3ac7220abb308465U, 0x3bde7e0a3b987478U, 0xbba8fa443b10e9d3U,
  0x3b1a98db3a94dde0U, 0xbb88aa093b128a0dU, 0xbb335809bbc38039U, 0x3a463d69ba9a45c7U,
  0xbc1a9f4bbb25e52bU, 0xbb3fdb19bb5ca111U, 0xbc18c7c8bb2ced10U, 0xbb6eaa79bb996206U,
  0x3b2741743a9113baU, 0xbc0b9b5fb9e269bbU, 0xbaed25afbb24be03U, 0xbbf10f0bba88d9c9U,
  0xb859d57ebb89a550U, 0x3bc2b5fa3b4984c4U, 0xbb9e3a913b298bb0U, 0x3a9b0b3a380c44f4U,
  0xbbac385c3af9e290U, 0xba0343a5bb2f04a8U, 0xbba144d3bba4bb3aU, 0xbca36777bb756dfdU,
  0xbb829673bbc805daU, 0x3ac52cb7bc4918c6U, 0x3bef07823b3b1a75U, 0x395a90963ad4b660U,
  0xbc4638f73ba275d2U, 0x390ac628392572bbU, 0x3b557d17bc2dc0c1U, 0xbb55a32c3ac1e40dU,
  0xbb0a3facbb99d85cU, 0xbc7331feba9f645eU, 0xbb1edbf5bb00bfceU, 0xbbfc2c33bc867ebeU,
  0x3b4e909bbb06a4f8U, 0x3b31aaec3aeff988U, 0xbc10bf733be6d272U, 0x3bd8435a3b98ce38U,
  0x3b42fc54bc0f119eU, 0x3a0d5fdfba7cbb98U, 0x3b554a32b7f51af5U, 0x3a96c2e33ac999b6U,
  0x3b45b31bbac0f697U, 0x3ae855b9b8481296U, 0x3adf14723ab6b993U, 0x3bb1086d3ac6cbc6U,
  0x3b1c94243b0c95e1U, 0x3b9e1f023ad10bc6U, 0x3b0c53593b36e09eU, 0x3b0603673adf86daU,
  0x3b8d24f03a6d8bcaU, 0x3b78bab13b5bae3aU, 0x3b3bb763b9498c6eU, 0x3a7eeecd3801e8d7U,
  0x3a1f5f92b8314d94U, 0x3bab4a7b3a12e498U, 0x3b87aec93b67195bU, 0x3b2b1cd9b8e48a4cU,
  0x3ae8f16e3a249501U, 0x3a86f0ef3ac23dd3U, 0xbc3cb915bba5e978U, 0xba1fcf41bb670ddaU,
  0xba6f135a3b020bacU, 0xbb8a143e3ae10311U, 0x3bf4bd283bd206c2U, 0xbbe804e8ba13f32dU,
  0xbb0c6c69bb9aabd3U, 0xbb43badd3aa26547U, 0xba289a5f3ba30e8bU, 0x3c4d42853c3e2befU,
  0xbc03ef3e3b6921c7U, 0xbb45cc343a88013aU, 0x3b674b1b3a9b85acU, 0x3a0aa8c43bc3e457U,
  0x3c35eead3c26ecadU, 0xb980dd5c3ba22efdU, 0x3b2bb8d6bb7b18a1U, 0xb9a396a4ba59dca1U,
  0x3ba6ec153c13385dU, 0x3a528d293a94836eU, 0xbb2612b3bb0b668eU, 0xbbf7256fbb3fcdebU,
  0xb9ec43fcbb134e11U, 0xbb06c28b39d1b3e1U, 0x3b1e73f13b49fe32U, 0xb9d7ed50b9c507abU,
  0xbbc818a5ba959c3dU, 0x3ab5b829ba811f11U, 0x3a898b673b4f72c7U, 0x39d1058f3b0d8d15U,
  0xbb2dd6e6bb053282U, 0xbc068888bb2f2e44U, 0xba1ec369bb2de2f4U, 0xbafc2e04b8102f7bU,
  0x3a70dfb13b1ff8f6U, 0xbaf7730eba8f763fU, 0xbbbe8768ba11b8dbU, 0x3aa0793cbad9e0dcU,
  0xba2307243aaff20cU, 0x3bfff51f3c8648feU, 0x3be6c55eba7672caU, 0xbc811137ba322e0cU,
  0xbb759129ba4d80afU, 0xbbbaf77dbb469dacU, 0xbbd7d2d23be0221eU, 0xbb8bbc6ebbaccc65U,
  0xbca34583bbe1607aU, 0xbc935440bc8980d7U, 0xbc2c40ffbcab1ed4U, 0xbb88f2ae3b6bc22eU,
  0xbc042ed4bb0afc84U, 0xbcb13a34b9f07162U, 0xbc98314ebc780bc4U, 0xbc684713bc98687bU,
  0xb755b4183c8a27edU, 0x3b48af69bada66a0U, 0xbc1b2de83bce8e57U, 0xbb8588e73a643de5U,
  0xbbff3ce1bb7cd8c7U, 0x3cf5d06b3cb6ed2aU, 0x3d4f06d23d150bd3U, 0x3b4381b23c4e9d4fU,
  0xbb3ff00bbca6e455U, 0xbbe062f13c12cc78U, 0x3bc276693b700189U, 0x3d4b646d3cc05c0dU,
  0xbbf9d591b8ff9be6U, 0xbc622fe1bc92f237U, 0xbc8f8c6fbbe8d163U, 0xbc2f6abdbc06f2f2U,
  0x3cef29943caf7870U, 0x3c3c500ebc256edeU, 0xbc109d98bccdecafU, 0x3bfaf4f9b9be2c5fU,
  0x3ac5a58dbc881787U, 0x3ced90033c7b84a9U, 0x3bd290d2bbb98961U, 0x3c815be6bcc0ca61U,
  0xbaf82c26bbfd52b5U, 0xbc4ea247bc28e085U, 0xbc18ec443cb503c6U, 0xbb9e45d0bae63868U,
  0x3bef254a3c822336U, 0xbc67eb0bbb01ea52U, 0xb99db151bbf61282U, 0xbab5fa443d50d44dU,
  0x3a847e81bc2c8978U, 0x3c294454bb2979fbU, 0xbbf3444b3bf34b4fU, 0x3cc0fc31bc0b07baU,
  0x3c84253c3d96719cU, 0x39825be3396426afU, 0xbc0cecd93b5d51cdU, 0x3ca1bfdebb1b4739U,
  0x3beea673bc405920U, 0xbac78a623d1a81efU, 0x39bab3f5bb152c82U, 0xbbd053b6bc044090U,
  0xbb5b4463bba9d98cU, 0x8000000080000000U, 0x8000000080000000U, 0x8000000080000000U,
  0x80000000U, 0x0U, 0x0U, 0x8000000080000000U,
  0x8000000080000000U, 0x8000000000000000U, 0x8000000000000000U, 0x8000000080000000U,
  0x8000000080000000U, 0x8000000080000000U, 0x80000000U, 0x80000000U,
  0x8000000080000000U, 0x8000000080000000U, 0x8000000080000000U, 0x8000000080000000U,
  0x80000000U, 0xb952c8dd3ad1a53eU, 0xbbf88a0f3ac651f4U, 0xba0013fbbbc4c9f4U,
  0x3be9d0f33b32e982U, 0x3c99f970bbe285a6U, 0xbaa64ab93b67b9abU, 0xbb3e74df3b4c45d6U,
  0xbb7009a1bbca912dU, 0x3bcd6cf13c39cd78U, 0x3d2435153a598291U, 0xbaeb08f2bb4feb24U,
  0x3bd4ecbcbb21f241U, 0xbbb53f543aa1329bU, 0xba3a914ebc137544U, 0x3d57ce65bb655f7aU,
  0x3b458c53bb940ccaU, 0x3b495a14bb06451dU, 0xbb9003a03bfd7b9aU, 0xb96d34dbbc120b87U,
  0x3d83aab93b8a96d1U, 0x8000000080000000U, 0x8000000080000000U, 0x8000000080000000U,
  0x8000000080000000U, 0x8000000080000000U, 0x0U, 0x0U,
  0x8000000000000000U, 0x8000000080000000U, 0x80000000U, 0x0U,
  0x0U, 0x8000000080000000U, 0x0U, 0x0U,
  0x0U, 0x0U, 0x0U, 0x80000000U,
  0x0U, 0x80000000U, 0x0U, 0x8000000000000000U,
  0x8000000000000000U, 0x80000000U, 0x80000000U, 0x0U,
  0x0U, 0x8000000000000000U, 0x0U, 0x80000000U,
  0x0U, 0x0U, 0x8000000080000000U, 0x80000000U,
  0x80000000U, 0x0U, 0x0U, 0x8000000080000000U,
  0x0U, 0x80000000U, 0x8000000000000000U, 0x8000000080000000U,
  0x8000000080000000U, 0x0U, 0x80000000U, 0x80000000U,
  0x8000000080000000U, 0x80000000U, 0x0U, 0x80000000U,
  0x0U, 0x8000000080000000U, 0x8000000080000000U, 0x0U,
  0x80000000U, 0x8000000080000000U, 0x8000000080000000U, 0x80000000U,
  0x0U, 0x3baad9503b0bba87U, 0xba82e1edbb8a668cU, 0xbb479d963a3dad6dU,
  0xbbed5f4fb9c422e6U, 0xbbc8943dbc4c1cfcU, 0x3bcaa46c3b8cf6e6U, 0x3c103a11b8748d2cU,
  0x3bec89353bc6418fU, 0x3b37d617bab69543U, 0xbbcc90ecbb89c317U, 0x3b88e0783b9a9ebaU,
  0x3c5df9f33b765161U, 0x3bd248793bf4627cU, 0x3b4fcec43b231f8fU, 0xbbc6bf96bc189ec2U,
  0xbb69348fbb81daccU, 0x3c6497e03a99aebcU, 0x3bd2b6a53c02bf2fU, 0xbb08d8843be6cc7fU,
  0xbbb6e116bb44d589U, 0xb6f91d32b73d441bU, 0xb789b04ab7abf716U, 0xb83a600db7ce7f56U,
  0xb84c2de0b7f06c1dU, 0xb89a3e67b85cabf7U, 0x371174f33745a8beU, 0xb6ddecbcb6ce6161U,
  0xb824f40fb779f3aaU, 0xb819515fb79e18f2U, 0xb85d130ab811cfedU, 0x377d1a1f37ade062U,
  0xb6e578c5b6378a5dU, 0xb82d243db77844aaU, 0xb828020ab7bb608eU, 0xb861d962b81bb48dU,
  0x377ae90a379e9f7dU, 0xb68f6a08b59fcc10U, 0xb8167d1ab73e5eeeU, 0xb806a004b7875b6eU,
  0xb84d958db7faa61cU, 0x8000000080000000U, 0x8000000080000000U, 0x8000000000000000U,
  0x0U, 0x80000000U, 0x8000000080000000U, 0x8000000080000000U,
  0x0U, 0x0U, 0x8000000080000000U, 0x8000000080000000U,
  0x8000000080000000U, 0x0U, 0x0U, 0x8000000080000000U,
  0x8000000080000000U, 0x8000000080000000U, 0x8000000080000000U, 0x80000000U,
  0x0U, 0xbbdd83abba920e86U, 0x3ccc5ac23c0aaaa7U, 0x3d1cbb02bc567352U,
  0xbc3128fa3c4b416cU, 0xbaee9c8d3b90c4f7U, 0x3b9a677e3b7ba0dcU, 0x3c02369f3aad7105U,
  0x3d36bc85bb85064cU, 0xbba359e1bbc6015dU, 0x3bc2a68e3a9ae6aeU, 0x3c1c58c83b59f937U,
  0xbc6e3d54bb3cf152U, 0x3d5074c4bc0785d9U, 0xbc3aeeafbbe55d53U, 0x3b6c26d6bc2c1797U,
  0xbbb5d4a7bbe73480U, 0xbc64cfd3bc90cdd6U, 0x3d641772bc4ef6e7U, 0x3bd6ea553c7dbb8aU,
  0xbc0e3fd73b873ed2U, 0x8000000080000000U, 0x8000000080000000U, 0x8000000080000000U,
  0x8000000080000000U, 0x8000000080000000U, 0x8000000080000000U, 0x8000000080000000U,
  0x8000000080000000U, 0x8000000080000000U, 0x8000000080000000U, 0x0U,
  0x0U, 0x0U, 0x0U, 0x0U,
  0x0U, 0x0U, 0x0U, 0x8000000080000000U,
  0x0U, 0xbb7892313ae78f58U, 0xbbd0fe1cbc063788U, 0xbbca94fabb7e7b78U,
  0xbc6c82bcbbeee502U, 0x3d1e2ce3bb53ecdbU, 0xbaf1be37bc01afe0U, 0xbb91ed6dbc44afb9U,
  0xbba3c134ba5ec70aU, 0xbb1fcb21bab4f66eU, 0x3d3db2cbbb8c6424U, 0x39007b3abbe80054U,
  0x3af3560c3bda50c3U, 0x3bd1efd93b6bcc9eU, 0x3bc285353ba6de14U, 0x3d57aeca3c088557U,
  0xb956a8173c225250U, 0x3c53bbf43c01d42fU, 0xbb21159aba444d00U, 0x3c5671633c36c44cU,
  0x3cf359673b5f06cbU, 0x3b576983bbd80a79U, 0xbc579ec1b9d259d6U, 0xbc01e400bbed797eU,
  0xbc60d23bbc65600fU, 0xbc8d3b7dbc6c425aU, 0x3bfb16a73be3008cU, 0xbaa0870f3c5663f0U,
  0xbb878160bbfbd8e5U, 0xb8846a82bc078b35U, 0xbb2e8eafbaa8581fU, 0x3c8cfd1d3bb1b3b8U,
  0x3c3c71ab3ca7c1f1U, 0x3a547558bbb6c958U, 0x3b860b5bbb6e570bU, 0xbaa0f4253bbeb88bU,
  0x3ca5cbd63bd0b09eU, 0x3c1f09273c9812daU, 0xbba24d433a4b3a34U, 0x3c26c3a13b34ff77U,
  0x3c30b4693acdf522U, 0x0U, 0x0U, 0x8000000000000000U,
  0x8000000080000000U, 0x80000000U, 0x0U, 0x0U,
  0x8000000000000000U, 0x80000000U, 0x80000000U, 0x0U,
  0x0U, 0x0U, 0x80000000U, 0x0U,
  0x0U, 0x0U, 0x8000000000000000U, 0x8000000080000000U,
  0x0U, 0xbbabadb6bc13977fU, 0xbbab4382bc09e7f2U, 0xbc2cfc4bbc0b1db5U,
  0xbcc170fdbca36450U, 0xbbd2c2053a39791bU, 0xbb34643bbc041fbeU, 0xbbc2cb94bbfdd373U,
  0xbc2d065abc0957b2U, 0xbcc7f5e5bc9c57edU, 0x3bf3c8e5bbd40b50U, 0xba911731bb9a577cU,
  0x3bb73ccf3bb2ddabU, 0xbbddde913a349e99U, 0xbc3882d0bbce956dU, 0x3c0a24463bc250b3U,
  0xbb01ade73c1043d6U, 0xbbbea8513a62e6f6U, 0x3ab669d9b93b4566U, 0xbbb66273ba401bddU,
  0x3c68b834bb06cb7fU, 0xbb94969cbbb5b279U, 0xbb41a614bb550241U, 0xbbbab930bbd8794aU,
  0x384986d8ba89b221U, 0x3b483c5d3b68aaddU, 0xbbba573fbbf3a909U, 0xbb489630bb8282e0U,
  0xbbbc9f33bbf4bdd2U, 0x3a8677f2ba4d0b01U, 0x3beb739739e134d4U, 0xbbc9c65fbbccdfe9U,
  0xbb5f6498bb9ad126U, 0xbbac5458bbeac6afU, 0xbb0ed0b2ba52b454U, 0x3be4ffda3b56796aU,
  0xbb43c46cbb4f0faaU, 0x3a715d8c3a66d41aU, 0xbb47d4fdbb5783a2U, 0x3b5cc24db91119aaU,
  0x3b02da1f3a05c144U, 0x3bf8b0743b4148a8U, 0xbbe3a7e7bb38fec5U, 0xbadbbe03bba52b4fU,
  0xbbecb07d3b72049eU, 0xbbac25bc3c985476U, 0x3c02b2233ba72a0dU, 0x39f1e65c3c21ca03U,
  0x3bc9c5b93bea85a3U, 0x3c52b00c3c5ea575U, 0x3bcaa9623cc01605U, 0xbc83ac9dbbdc6cf1U,
  0x3a621f0fbc0f94dbU, 0xbbd3a1733bc6509bU, 0x3c25d0773b9071c9U, 0x3c173afa3cfea2dfU,
  0xbc4debbfbb4e497cU, 0x3b9a9a5bbad4e832U, 0xba81632abb4d9ca1U, 0x3c3ab5db3bbca85fU,
  0xbc33b3343cfcc9acU, 0x3a8867cfbb683e4bU, 0x3c8f54cd3a4fad89U, 0x3dbd4d853d064b9dU,
  0x3c7b7de53d5984e0U, 0x3ba7b1d2ba68d141U, 0xbc44037cbbeae758U, 0xbca71f50bbf2d652U,
  0x3d4be9fd3c237985U, 0xbc284ad3bc026aebU, 0xbc580196bd00a942U, 0xbba4eee3bc3adba1U,
  0x3c1a0ce43aad4f39U, 0x3c4b43073c5da490U, 0xb8c725aebc23fa29U, 0x3a14a5ea3b16c284U,
  0xbbcb45ecbc667768U, 0x3b8cbd0ebbd8012bU, 0xbb76f095bc43293eU, 0x3c4a030fbbaef22bU,
  0x3bbadb223c80661bU, 0x0U, 0x0U, 0x80000000U,
  0x8000000080000000U, 0x8000000080000000U, 0x0U, 0x0U,
  0x80000000U, 0x8000000000000000U, 0x8000000080000000U, 0x8000000080000000U,
  0x8000000080000000U, 0x8000000080000000U, 0x8000000080000000U, 0x8000000080000000U,
  0x80000000U, 0x8000000080000000U, 0x8000000000000000U, 0x0U,
  0x8000000080000000U, 0x38e32a53b8241b04U, 0xbb6168303b3df6b3U, 0xba6f2658bb0e6b5bU,
  0x3c0ce408bb6c6083U, 0x3c81f2b739bee49aU, 0x3b26fda53b5971abU, 0x3ba679163a3548ecU,
  0x3b0ca1483b3d6bbfU, 0x3c4e385d3bdbf6dcU, 0x3cc504903b8fae08U, 0x39d4144cbb7e9028U,
  0xbb7bcb7ebb00a788U, 0x3be3a54039adb9b4U, 0x3bf4d4edbb73b850U, 0x3c875e40bb612e86U,
  0xbbec913db9325119U, 0xbba13df0bb92b6baU, 0x399ee512b9e09a91U, 0x3b91e767bb1b8640U,
  0x3c8dde26bbce57fdU, 0x0U, 0x0U, 0x8000000080000000U,
  0x0U, 0x0U, 0x0U, 0x8000000080000000U,
  0x80000000U, 0x80000000U, 0x0U, 0x0U,
  0x0U, 0x8000000080000000U, 0x8000000000000000U, 0x0U,
  0x0U, 0x0U, 0x0U, 0x0U,
  0x0U, 0x8000000080000000U, 0x8000000080000000U, 0x8000000080000000U,
  0x8000000000000000U, 0x8000000080000000U, 0x8000000080000000U, 0x8000000080000000U,
  0x8000000080000000U, 0x8000000000000000U, 0x8000000080000000U, 0x8000000080000000U,
  0x8000000080000000U, 0x8000000080000000U, 0x8000000080000000U, 0x8000000080000000U,
  0x8000000080000000U, 0x8000000080000000U, 0x8000000080000000U, 0x8000000000000000U,
  0x8000000080000000U, 0xbb6c452fbc383cd2U, 0xbba92afebb71e8d7U, 0xbb9c8731bbb0db19U,
  0xba50673ebb6e73bdU, 0xbbfaca61ba58928fU, 0xbbbea304bc5aec90U, 0xbb63097cbb7f736fU,
  0xbb810d76bb8fc782U, 0xbb6e74f6bb616521U, 0xbc3479b1bb8695dfU, 0x3a91f765bba7f39dU,
  0x3ad35c873b008aa9U, 0x3b011c1b3aee266bU, 0x39b1f41d3b35d763U, 0xbbead9fabab8dd95U,
  0x3ba4ba3439a721a4U, 0x3b95f7173b9cf274U, 0x3bb597c73bb0b5beU, 0x3b5604653bb5319aU,
  0xbb991ef83ab88027U, 0x8000000080000000U, 0x8000000080000000U, 0x0U,
  0x0U, 0x80000000U, 0x8000000080000000U, 0x8000000080000000U,
  0x0U, 0x0U, 0x0U, 0x8000000080000000U,
  0x8000000080000000U, 0x0U, 0x0U, 0x0U,
  0x8000000080000000U, 0x8000000080000000U, 0x0U, 0x0U,
  0x8000000000000000U, 0x0U, 0x8000000080000000U, 0x8000000080000000U,
  0x8000000000000000U, 0x8000000080000000U, 0x0U, 0x8000000000000000U,
  0x8000000080000000U, 0x80000000U, 0x8000000000000000U, 0x0U,
  0x8000000080000000U, 0x80000000U, 0x80000000U, 0x8000000080000000U,
  0x8000000000000000U, 0x80000000U, 0x8000000000000000U, 0x8000000080000000U,
  0x80000000U, 0x3b1cbf40bb8534ffU, 0x3b9be3dd3b4bea0eU, 0x3b25006dbb90418dU,
  0x3bd6f5afbb9d23d6U, 0x3b02d09f3b8b720cU, 0xbb138d43ba94ef07U, 0xbaeaf3dcbb1bb59cU,
  0xbb3e88d4bb8407d1U, 0xbb94aedebb744513U, 0xbbb5deabbb9c2db9U, 0xbb037fcdbb02b2baU,
  0xba959397bad47dbdU, 0xbb27109abb1dc1deU, 0xbb5301c0bb364150U, 0xbb938181bb5c7be8U,
  0xbb2f3c10bb05e13fU, 0xbad802cabae5abd4U, 0xbb429ed5bb389bfbU, 0xbb5e0ab6bb553d77U,
  0xbb9e2738bb7796e0U, 0xbd712a22b9d418a6U, 0x3d1be6b8bb927910U, 0x3c625965bbda1adbU,
  0xbc1e931abc73f37dU, 0x3c2385c43c21f779U, 0xbd64715e3998fefbU, 0x3c26676fbb41d2f8U,
  0xba919dc33c0668baU, 0x3aa1a1cb3bbf402cU, 0x3c9dd6583c9a2998U, 0xbd61e69fbb64dc7cU,
  0x3cb07157bbba0cacU, 0x3cbb86da3c86ba0aU, 0x3a8428e8bc5b8f54U, 0xbb90a3323cb616a4U,
  0xbd2efaf93bf7dd1dU, 0x3d123252bc9d7a8cU, 0x3abd968bbc059dcfU, 0xbc8152f7bca7889eU,
  0x3b3c39323cd877a3U, 0x3bda6e6f3b8ac272U, 0x3beb464d3bb8a278U, 0x3b4ab5c6ba555e55U,
  0x3d1661b63d0ae7d3U, 0x3c9615703c931a43U, 0x3b88616b3b2130c5U, 0xbc9191f23b2e61d8U,
  0xba637fe3bcbd8efeU, 0x3cc4e1293cb38ea1U, 0xbc4c23f43c4cee40U, 0x3c003b3c3abe5f3bU,
  0xbcac317c3bebd70fU, 0x3c28a73ebc899295U, 0x3c7ec46c3cb9047fU, 0xbc987db83af3dd5dU,
  0x3b61197f38e68eb5U, 0xbc8a4f55ba989a3dU, 0x3b6ca79cbb855f48U, 0xbacc70293ca53b25U,
  0xbc26fd1ebbef2fe7U, 0x3bedcf533b8c5009U, 0x3baa8bfe3b883ce7U, 0x3abd4c283b109f75U,
  0x3c9a911d3c50eb1eU, 0x3d109db03d7cbb6cU, 0xbc275030bc13968fU, 0x3b5be8eaba56cde4U,
  0xbc56d817bc15cfc0U, 0x3bc2280e3be6d1cbU, 0x3bbe8ee03d0a1f5eU, 0x3b887a69bb474dabU,
  0xbb87c974bb93b1cdU, 0xbbfa9bfbbb5faf2aU, 0x3bfe70fbbb91b186U, 0xbb5b96643cbde464U,
  0xbbd2a9513aebf77aU, 0x3b7c92ffbbc8fe22U, 0xbc7a7919bc2cbb65U, 0x3c1744bf399eeb82U,
  0xb9940b3d3b7535eeU, 0xbec31ebd000089ddU, 0xbe789641800088c9U, 0x89ffbf5bc4fcU,
  0xbe56386e3eb52804U, 0x89c8800088c7U, 0x89313e145ee7U, 0x3dbde6c400009f59U,
  0x3e90bfdebe5fda2dU, 0xbe68f7063e04f385U, 0x3eb6159b3e38d1d9U, 0xa08ca2723e9fee8bU,
  0x8000893200008a09U, 0xbeaa8a00bf1236f8U, 0x3e48fd5ebe2ca836U, 0xbe8bda92be23cfd0U,
  0x3e96e2033ef1efcbU, 0xbf4c5865bd8a337eU, 0x3dd2775c3eb42b0cU, 0x3dc5720400008a07U,
  0x89998000897dU, 0x3e83493a00008950U, 0x80008909bb15f492U, 0x896d3e873b5aU,
  0x3e0842b83e2abb9eU, 0xbf3361c48000890eU, 0x3e3fb8f0be92cb1fU, 0x88f03ea5ed39U,
  0x89a03e41ed06U, 0xbe57ca3680008997U, 0x89d30000893aU, 0xbe97ee8dbe8e8cbdU,
  0x3e7cafa83e8c9e92U, 0x80000000U, 0x80000000U, 0x8000000080000000U,
  0x8000000000000000U, 0x40b3754c80000000U, 0xc0120137c0f382c0U, 0x4014d6963fdb96a3U,
  0x40f4e3e7c04224f0U, 0x409fc325405060dfU, 0x8000000000000000U, 0x8000000080000000U,
  0x0U, 0x8000000000000000U, 0x3ec9e74080000000U, 0x3f2e02f2bebf7012U,
  0x3e55cae2bf42f6bbU, 0xc02c28d1be894bc2U, 0xc00a26afbfa8cb25U, 0x41815531417d3ca4U,
  0xc0820f4c41d4e661U, 0x3fc40191c1341f4aU, 0xc14ae8bfc100ab2fU, 0xc1be731bU,
  0x8000000080000000U, 0x0U, 0x0U, 0x80000000U,
  0x403cf4bec00ca5b3U, 0xc0a47175bfc2cb9dU, 0xbeb713ed409006c8U, 0x408c1305c0981911U,
  0xbfa719f2bf3b35a2U, 0x3f17ba803f1adbb9U, 0xbf436205bf9cca1cU, 0xbfe7c1a83e5c008bU,
  0xbfdde6d8bfbb69f2U, 0x80000000U, 0x8000000080000000U, 0x80000000U,
  0x0U, 0x8000000000000000U, 0x80000000U, 0x8000000080000000U,
  0x8000000080000000U, 0x8000000080000000U, 0xc134d05640d771f0U, 0xc014d4a0bede5d64U,
  0xc0b48dd2bf28c435U, 0x4096d21b40cfed92U, 0x80000000c0acc2b2U, 0x8000000000000000U,
  0x0U, 0x80000000U, 0x80000000U, 0x0U,
  0x8000000000000000U, 0x8000000080000000U, 0x0U, 0xbf572b2200000000U,
  0x4004c0f5bfb3a108U, 0xc0add181411e5258U, 0x4132fb3740217820U, 0xbdb57b58c101016eU,
  0xc00dad79bf0e7e15U, 0x3e759d0dbfe33416U, 0xbeb906f0bf68058eU, 0xbf4159273dc9e028U,
  0x404604dc3e53843aU, 0xc089e1a6c0e826dcU, 0xbfd24890c0ce9a45U, 0x40c35ec0c038d5fdU,
  0x4105148b4125a965U, 0x3fa4a0d4bfa43699U, 0xbfa1685abebfda81U, 0xbfc47da03fe70fd2U,
  0x409b6290bf51a75fU, 0xbf0433563f90a82aU, 0xbff03857be97366fU, 0x3f4aad62bf682ff4U,
  0xbf48e8cdbf98bf23U, 0xbfa05c1c3e14db98U, 0xc0ca3b3d409d289cU, 0x40a7a047c0b32df4U,
  0x3fd8634fbfbfaa78U, 0xc0d90e21bdcba236U, 0x3f8b585dbdc8ab3bU, 0xbf55e8133fe78a0bU,
  0x4008e1d93f042db1U, 0xbdd24dc3c00b9dadU, 0xbf5f6e913fc146a0U, 0xbfe5f6c2c00cbdd6U,
  0x3fdeb54640f6bb8dU, 0x4062d15abfad99aaU, 0x3ff65c8dc073e671U, 0x80000000be19e4d0U,
  0x80000000U, 0x8000000080000000U, 0x80000000U, 0x0U,
  0x80000000U, 0x0U, 0x8000000080000000U, 0x0U,
  0x8000000080000000U, 0x8000000080000000U, 0x80000000U, 0x0U,
  0x8000000080000000U, 0xc0dda761c09e3832U, 0x3fb64a35c1287a8eU, 0xc03b18f1413c2bc2U,
  0x41170f944097482dU, 0x3f373f0e3f3c643bU, 0x40f079d13ffce498U, 0x3ff94068c09dccdcU,
  0x407193564026360bU, 0x40406945c0992bb3U, 0x409aaaa4c09ed574U, 0xbfa959ffbfe4f184U,
  0x40729216410d26c6U, 0xbfad9c96c0665cadU, 0xbf55bc874063ce18U, 0xbfe418cc3f496e8fU,
  0xbfe6726abe3968f2U, 0xc0324f5740570edfU, 0x40408c27bc498899U, 0xbe6a5d233f493ce0U,
  0x3fad0c65bfdfbadbU, 0xbf12c77fbed92bf3U, 0xc015648e3eac8d0dU, 0x3ffcd899c0044a65U,
  0xc031a41d3f83edbcU, 0x3fbaf64f4040ef21U, 0xc04d09f2c017d0f9U, 0xbfd4b463c08bacb5U,
  0x400bfc7a3fb6c484U, 0xbf9d3173c07f62e2U, 0xc0eab4884057c990U, 0x3ff8531d406c199cU,
  0x3fae6bc5c000609dU, 0x40a65eaf3e89d6e8U, 0x3fccb1c3c025debcU, 0xc042764440279e26U,
  0xbf7c48bec0acc511U, 0xbfada5f9bfab31c2U, 0x3d35fedfbffcecdbU, 0xbee65c1fbf7f10ccU,
  0xbfb37073bf4cfc66U, 0xc081b4f14038b763U, 0x41bb626241ea8242U, 0xc160285a409cb277U,
  0xc10cbe0bbfa398adU, 0x3f1b74e3c1c07d53U, 0x40a9882440412a8dU, 0xbb685e1f3f1dc6b0U,
  0x3e9fe7c7bfc161b2U, 0xbeb11b84bf9ef09aU, 0x40411c43bf9369c3U, 0x3ff0f45dc09158c7U,
  0x4101bdc3405cc769U, 0x40810ae0c0ad0739U, 0xc047edad404aaf1dU, 0x8000000080000000U,
  0x8000000080000000U, 0x80000000U, 0x80000000U, 0x40c3139480000000U,
  0xc0949c23bef2ed2fU, 0x3fb1df6240be9892U, 0x404dda24c0b74871U, 0xc0179defbda97a56U,
  0x80000000U, 0x8000000000000000U, 0x80000000U, 0x8000000080000000U,
  0x0U, 0x8000000080000000U, 0x8000000000000000U, 0x8000000000000000U,
  0x8000000000000000U, 0x80000000U, 0x8000000080000000U, 0x0U,
  0x0U, 0x4001494a80000000U, 0x3d2753b240294084U, 0x3f2f035fbf87631cU,
  0x3f10e5943ebad1ffU, 0x3ff30f66c00b89a9U, 0x3b5000f83aa86cccU, 0xb806bd1d3c0b3c56U,
  0x3bd4fe353b033518U, 0x3ade4ae5b9b0fa14U, 0x3bc06013U, 0x0U,
  0x0U, 0x80000000U, 0x0U, 0xc084ba7340967c50U,
  0x3fd2e78a4067fd55U, 0x406ac695c094b9a3U, 0xc05190bf3ff95acdU, 0x401ecd45U,
  0x8000000000000000U, 0x0U, 0x80000000U, 0x8000000000000000U,
  0x3fce121fc079ebd5U, 0xbfa58c4e412ee9bfU, 0xbf62201e40161460U, 0xc04ba85fbd89c4b8U,
  0x3eb5aa844068af8fU, 0xc0e919913fe07e84U, 0x400ac1bcbf8875f9U, 0xc0152095c04aab88U,
  0x40ad8eb14094d01fU, 0x80000000U, 0x0U, 0x0U,
  0x80000000U, 0xc1977e9d00000000U, 0xc186bc0fbf7743afU, 0x40b370d4c002f429U,
  0xbf78334640c5bb61U, 0x41994e5a41280b39U, 0x4105615341258950U, 0xbfcd66bebe8aa258U,
  0x404400834049be73U, 0xc0143363406134e4U, 0x402a6e93c1410279U, 0x403d1806c089fe1dU,
  0xbfddb759c082f647U, 0xc0dab0e140a33f10U, 0x40755f1d40449f43U, 0x40276d0a3fce4211U,
  0x3eec71a74071c5b3U, 0xbf5dc9cbc05284c6U, 0x3fbaa2c4bf4a4332U, 0xbd142bb0U,
  0x0U, 0x8000000080000000U, 0x80000000U, 0x0U,
  0x40d63273bfa8d5c4U, 0xc0e06751bfb52052U, 0xc0e205be40ea453eU, 0x40a3110bc0636c5dU,
  0x80000000c0d7a1dcU, 0x80000000U, 0x8000000000000000U, 0x80000000U,
  0x8000000000000000U, 0x0U, 0x8000000080000000U, 0x8000000080000000U,
  0x8000000080000000U, 0xc00dedb300000000U, 0xc03852e4be21df3fU, 0xbd915772bfaa3c03U,
  0xc00c94debfd4e2ccU, 0x3fa99bc83fe2301eU, 0x0U, 0x80000000U,
  0x0U, 0x0U, 0x8000000080000000U, 0x8000000000000000U,
  0x8000000000000000U, 0x80000000U, 0x8000000000000000U, 0x3fa6c256bfd5c6b7U,
  0xc0db4e1ec033780aU, 0xc005ca2bc0f5278eU, 0x4079ca0840c3c8d6U, 0x3f5e2fd040d26724U,
  0x3f7bc422400c4393U, 0x3fd9305ebebb6268U, 0xbf7a13b9402d22f7U, 0xbfdcf44e3daffa79U,
  0x3e45c0e140953d0cU, 0x401fcb40415c8987U, 0xc0947b75c1384cb9U, 0x41462d56c0b2963dU,
  0xc0a12ee3c0a9adc2U, 0xc06c1093c0e867eeU, 0x3e47e87f3fe17581U, 0x3f9eb3fdbe8c15d3U,
  0x407ba1394123ede0U, 0xbe59d37a80009528U, 0x3f7c06a203c07850U, 0x2916479be14c271U,
  0x3f0363fa3f1a0e27U, 0x2a816c3800088deU, 0x3a503803ef2aaacU, 0xbe03752e03a132b7U,
  0xbca427f03f938879U, 0x3f25f507bea32f4bU, 0xbe4397253ed9d108U, 0x834c8ee0bdded796U,
  0x82eb36a5800088d3U, 0xbe79c607be2d7d05U, 0xbd644322be0ec712U, 0x3f56934e3e58128fU,
  0x3d8ade593eee6007U, 0xbedfb45f3e996c56U, 0xbece6824be948ea8U, 0xb8c0660003916894U,
  0x836a942483cfeec0U, 0xbf32c00880009393U, 0x2c889d2bb5c2b28U, 0x83d90402be9a825fU,
  0xbe4b2b04bf085596U, 0xbe7e0bd283b99bacU, 0x3e5e815abe8983e1U, 0x3ce142bbea8e594U,
  0x21500093ebdb5b4U, 0x3f03172683971feeU, 0x80cf4f3a800089f8U, 0xbdd39f263d13c286U,
  0x3e7d706fbe92adabU, 0xbbe3dda000002113U, 0x3c79976c80ed5d32U, 0x52e4773ca1c9f4U,
  0x3c3c94233ca65c44U, 0xb7c847800020f6U, 0x1fc7f3bcb5dfb9U, 0x3c69962f80bcaa79U,
  0x3b6330d0bbe89da1U, 0xbb4a64133c9d8b23U, 0xbd03eccbbcf2dfc0U, 0x98d32bc15b9f6U,
  0x8099a756000020c2U, 0x3d21edbf3c605d2fU, 0x3d91ca49bb908bb6U, 0x3d06508a3aea2496U,
  0x3ce8a8ec3cdfce15U, 0x3d1a0370bbbf91f6U, 0x3c4e8a133dd3d697U, 0xbccad98f80863306U,
  0x80fb5ecb80fff97fU, 0x3c0bdca40000268cU, 0x807f4445b789b4c1U, 0x813c4a963db029c0U,
  0xbb886455bd851f34U, 0xbc9b416d806f54ddU, 0x3c73d0883bb30529U, 0x89bfbc3caef0d4U,
  0x815f4062bc8ed6c7U, 0xbc37b62a81086b14U, 0x1de116000020aeU, 0xbb9319013bf38efbU,
  0xbc84c847bc801e6dU, 0xbcc1be1280003c68U, 0x3d4cf0de804e299cU, 0x810b8e6fbcd02a36U,
  0x3cc7fa73bd0101e9U, 0x8203264a00003baeU, 0x8183efbe3d70534aU, 0x3dd19fbf80e2b398U,
  0xbcba5e2c3d8d1dd8U, 0x3cc76d56bd52acecU, 0xbbf6f1dcbc88d33eU, 0x27184f3d2e70e1U,
  0x82302fc580003b5aU, 0xbde413c5bcd2734bU, 0x3dcc43aabca6c99fU, 0x3d4b1a903b946fd3U,
  0xbc811c4c3d7561f4U, 0xbc5c7b1e3cacf90aU, 0x3c96fd29bdba48ebU, 0x3d184d50822f4686U,
  0x8219335801039a69U, 0x3d20c23180003c56U, 0x812ad41139633632U, 0xb747263d24285aU,
  0xbc8e4abb3c6f9de0U, 0xbd06f8fb81a70ef5U, 0xbc6fed9f3aecd48aU, 0x82a5974ebdd31984U,
  0x80e28391bcc5a9b5U, 0x3ce09620823d4af5U, 0x8211dc1980003b7cU, 0xbcbfe0c8bc9bda8aU,
  0x3d9595e9be41f96fU, 0x3c1b4042800025f7U, 0xbc63d1b3020c470dU, 0x1329c34bb947d0bU,
  0x3b66e0003d07f548U, 0x80931bea0000279dU, 0x24c47103aedf8d8U, 0x3b50c933818290e2U,
  0x3a684320bc313dc3U, 0x3afc29c83c033a70U, 0x3bf30fb6bc00ef54U, 0x81e227713ca26329U,
  0xe2eca3800026c4U, 0xbb7f70523d2c7c52U, 0x3c02f8b03cc0af43U, 0x3c2010143be92aa3U,
  0x3c99601a3d283acbU, 0x3b8fe005bbf33c02U, 0xbc190e213dac87bbU, 0x3d13a6b68016bc84U,
  0x167261402010d93U, 0x3c4001d000002f93U, 0xe27143b50735edU, 0x2366c433ded4452U,
  0xbb9a512d3c18f256U, 0xbcbf5e6b81d53491U, 0xbd350f063bd59828U, 0x1f232423c627f87U,
  0x23d0879bcb9de5aU, 0xbb8e610b81424c68U, 0x93fef6000026b5U, 0x3c275dee3a6c07d1U,
  0xbd255691bbc9a877U, 0x3d119b23000039a8U, 0x3c9f41d002142769U, 0x15bbe7abd5e540aU,
  0x3c99f9133c5894d9U, 0x19a85c800003955U, 0x1ef425bbd184817U, 0xbdfc0d3c0133c470U,
  0x3d866d07bc9bb884U, 0x3c1a50cdbd05bc42U, 0x3c15ec283d5c88d8U, 0x1085496bd1159d4U,
  0x254634e00003944U, 0xbce02d5abc845aa1U, 0xbd657e16bd41e668U, 0xbaf1d036bb176c40U,
  0xbdb608d8bd548564U, 0xbd3c9f593b64a956U, 0xbc8735e13d01217cU, 0x3d5737a901fe1fd7U,
  0x1e2b6ec013c128cU, 0x3d416fcb000039edU, 0x15fc88fb8fbda52U, 0x1b559813d56a912U,
  0xbd12eb213d2fd8baU, 0xbbbeb4da023be876U, 0x3d9fa956bd4a2f44U, 0x24236b9bcaf6f4fU,
  0x1e191afbd7fdf3eU, 0x3cdc8bac01809604U, 0xa4538080003b12U, 0x3c3c2d543bea6965U,
  0x3e1809f03ca2df80U, 0xbbe1e46800002ed3U, 0xbcfbfa2e814b285cU, 0x819c8e3abcd2262dU,
  0xbbd5f33d3d26b28fU, 0x820c092300002efaU, 0x81b6ad273c27f9f8U, 0xbd1e15e0821e87c3U,
  0x3db2d2ecbc3e5f30U, 0x39817d3cbb3f26f1U, 0xbc86e8ab3b954dcfU, 0x10d32b4bc0939adU,
  0x812857ad00002e3dU, 0x3d376150bc9638e4U, 0xbca093bbbd0ba125U, 0xbca8bfc1bb6dec6aU,
  0x3d129b06bbee9964U, 0x3b479b6bbbdeb0ccU, 0x3d038341bd0cbcd1U, 0x3cde00c8014b61d0U,
  0x21033f38040d9b6U, 0x3a7b10a600002f1bU, 0x827ba103381f6107U, 0x80f87ec43ca212caU,
  0x3c54ed203d110085U, 0x3c4339788093c7ffU, 0xbcd4ea38bca8d82bU, 0x819f91cdbd7de625U,
  0x80d047d23ca1575aU, 0xbc1451600197d99aU, 0x8247a1258000303dU, 0x3b851712bc334ac5U,
  0xbc02f4093e05b3cbU, 0xbc9e81d8800023a7U, 0x3c8ba98a811405cdU, 0xbc0e59bbc6f1c8U,
  0x3c7b17b9bcd2a08cU, 0x808e48a88000233cU, 0x201d581bcc8f3d5U, 0xbce41b1781628668U,
  0x3d0bf6f53bd9268dU, 0x3a8591c5bc13754cU, 0xbce98f03bd09cbcbU, 0x70f7c23db62645U,
  0x12c95f5800022deU, 0xbc8fd7743b8cdc5dU, 0xbccb50693baafd46U, 0x3bb2e6ab3b992c14U,
  0x37fdd0e33d288839U, 0x3bc610fe39ffde4fU, 0x3c93622fba16ec7eU, 0x3cb0a63e01fc7da8U,
  0x81c8aaee016a614bU, 0xbc2b26ab800022d9U, 0x6b9a2337c2d11cU, 0xbeb0f8bd827f6cU,
  0xbd019d923cbaee50U, 0xbc8871c501d76531U, 0xbd0c7c6dbd492ab2U, 0x4235273be31710U,
  0xe944a9bc814237U, 0x3c67196e81a5bfc3U, 0x8138247b000023a7U, 0xbb3a37ff3b04e926U,
  0xbcdc913a3d1f23ceU, 0x3caca247000031e4U, 0xbc85fe0581e4989eU, 0x819e38b6bc732d43U,
  0x3a1c454e3c2739ceU, 0x8188eb9a00002e42U, 0x8066794f3ce34d3eU, 0x3c56786b81f6e912U,
  0x3db67b5ebc670854U, 0xbcb2fea8bd05969dU, 0x3b56102d3c734099U, 0x80d3aa60bc2d21fdU,
  0x80e953fa0000308cU, 0x3ca984b33c0cb9cbU, 0x3c46aebd3d33aa38U, 0xbcdcabffbc2fe3f0U,
  0x3bc1cd91bc992d15U, 0xbc970ca1bb0d0c4fU, 0xbd82463ebd346561U, 0xbd013086804b280bU,
  0x811dce8e80d6237aU, 0xbcee674f8000327dU, 0x8160904339b4d336U, 0x81f1e321bc78e338U,
  0xbbd3c2f13d260c20U, 0x3c97be3781adc022U, 0xbc6bc4d1bbbfdd9aU, 0x8107b3b23c7860b8U,
  0xbfa36b3bc8c6f5U, 0xbb8bf205811171ebU, 0x816bad2980002fa0U, 0x3b73f643bc9d583dU,
  0xbbd6fd543d429af8U, 0xbc9bf9fa00003a93U, 0xbd6b8a99019834f2U, 0x803b2682b9b7e239U,
  0xbca4caa83bb62b2aU, 0x81ab908a00003bdbU, 0x201205a3d895836U, 0xbbc4056f822b8496U,
  0xbd90bda1bbeaa1b2U, 0xbc25de1bbc01217dU, 0x3caa971c3d5d1a2aU, 0x80a661283d8978d5U,
  0x19e9a73000039a3U, 0x3c13e9cbbd63ccd8U, 0x3c283e233cb942e8U, 0xbcc5a671bc3f56a6U,
  0x3c982b723c9e080bU, 0xbc15b2abbc92583eU, 0xbc345b473cd3d1d3U, 0x3cbb5724014f00fdU,
  0x8216e7ce0102fb39U, 0xbbf0acac00003f38U, 0x8067fde2b8a13f3aU, 0x81565d553babc15dU,
  0x3b47bffbbd7b83f7U, 0xbcea99fc008274daU, 0x3c254e3dbab8a416U, 0x8135d8343cfeb8f7U,
  0x820fe3043d4410b2U, 0xbc47fae601a40befU, 0x812b32c600003f9eU, 0x3cd67940bc907d92U,
  0xbc0394323d207551U, 0x3bd70dbe0000201bU, 0x3c7fd218001bd70fU, 0x270434bb50dfebU,
  0x3bdaaad8bc7fc0e5U, 0x12d4a1c80001f50U, 0x80e9268d3ceed845U, 0x3c9067c380c24113U,
  0xbc99fcf83a613125U, 0x3c168b41bc2e9e8aU, 0xbac7eb213c2d536cU, 0x7905a0bb872f33U,
  0x8129f43d80001f3fU, 0x3c5491813c053c9cU, 0xbd045976bd8319cfU, 0xbc7ad1923b8b0082U,
  0xbcc36045bd0156f4U, 0x3d5112393b8eb837U, 0x3cf03e2dbc9fcd10U, 0x3c49067b003df803U,
  0x1d735fa80d5c901U, 0x3c331efc00001fc1U, 0x8001b73d389500d8U, 0x43c6a43d0b3164U,
  0xbc1e0ce43b00a24fU, 0x3c8aadb880cddab2U, 0xbd3c7fc93b734503U, 0xfb1c55bcdbc24cU,
  0x3ed616bd0eb085U, 0x3c199f8780a8eec7U, 0xbe7b0f80001fe2U, 0xbb8dfe93bac1e54aU,
  0xbbac87ca3da83f97U, 0xbcc7a2ff0000212eU, 0x3cb9106c81e529bcU, 0x80aefe4d3b1333f5U,
  0x3b92eb17bd0ab8cfU, 0x8177dc5980002146U, 0x81349d7bbc7c52c7U, 0x3c7db4cd0122a168U,
  0x3d3741d63c7ad95eU, 0x3c348679bd2cdb3aU, 0x3a5da8debc2ac964U, 0x825c7fabbd749346U,
  0x80d7d1e300002098U, 0xbc7a68ba3bf7f543U, 0xbb8b949c3c201709U, 0x3c8510733c08f5deU,
  0xbc636e7c3c90c551U, 0x3bbdf9b93bb7eb8aU, 0x3dbcc7163b723766U, 0x393eccbb8047fd6aU,
  0x8157e2fd81dba503U, 0x3b8013e900002409U, 0x81166143374acbdfU, 0x819ba4a1bad82ce5U,
  0x3cd21188bd34b56aU, 0x3b0e1493019865f4U, 0x3d09b2f2bcb421f5U, 0x13c9271bd09b443U,
  0x81fc8f5db8129ffeU, 0x3c571b36809a0409U, 0x15301fd0000213fU, 0x3cdc5754baf17f67U,
  0x3d2ca823bd44c593U, 0x3e1194cd00005664U, 0xbd2d9f4982e6765cU, 0x82d260c03d41a131U,
  0xbd179544bdc20dcbU, 0x82f28cf500005497U, 0x81e3a4c2bdb85c06U, 0x3eb17ac381908a9fU,
  0x3c85eff63e09ea52U, 0x3d68c09b3d939085U, 0xbc24d460bd500c47U, 0x1cd0dacbd34a4e3U,
  0x26931c9800054b2U, 0xbd2e07dbbda784a7U, 0xbc797cc6bd6df365U, 0x3dd179efbba22d3eU,
  0x3dc08ac4bc912c2fU, 0xbd3bb6603d5040b0U, 0x3e55f3703d98f098U, 0xbd92f89c02af8c40U,
  0x1e6eab68264041fU, 0x3da7d7708000541eU, 0x832ea4d4b8f3be1fU, 0x13cd642bda011d1U,
  0xbb97571cbdca6f2fU, 0x3d47fb8481a6cb78U, 0x3bf02bdebc1b1516U, 0x1f81296bd5ddc2bU,
  0x82fd2973bcc593bfU, 0x3d97cbbc809a4ff9U, 0x829d94f7800054aeU, 0x3dfd2d4e3d547110U,
  0x3c473b59bd461fbcU, 0x3a50186a8000397fU, 0xbd52188781e3a1e9U, 0x818d05cabce01259U,
  0xbca50fa3bd6af85bU, 0x12093aa0000394aU, 0x8247ae6cbdfa717cU, 0x3c816daf8233a29eU,
  0x3dcaf5233da8fb1aU, 0x3db80c823cc1f046U, 0x3c808555bd80af9fU, 0x81deee123d1bf17eU,
  0x823f183e00003865U, 0xbe0d21823d46b17eU, 0xbd8845383c7003c2U, 0xbd5d876b3c813778U,
  0x3cc1d1d2bd7cc007U, 0xbd14cc1a3d618279U, 0x3ca9c5dfbb80f19cU, 0x3cff4246017e0d80U,
  0x827a558882c58c3fU, 0x3cafe9800000399dU, 0x2121f96b98e8f56U, 0x82c426fa3d9f9635U,
  0xbd2813d3bc675cccU, 0xba82ae5702521137U, 0xbdae8235bba68559U, 0x81b2800e3c57e12fU,
  0x82cb75c4bdbb0045U, 0x3d1d1cd081b7c494U, 0x82445216800039f4U, 0xbc980e003c38827dU,
  0x3d412845be1bc1d5U, 0x3c98942780005845U, 0x3e3cd493829e17aeU, 0x831061533b81a04eU,
  0x3e297beebd19fac0U, 0x2c3b5e8800057f8U, 0x83359eb3bd6a0436U, 0x3dacf84101d7064eU,
  0xbe89e5d63e1aca95U, 0x3de7aa893d7e37e7U, 0x3cff3c39be2c45aeU, 0x827272da3d071d66U,
  0x82ea345480005757U, 0x3d3c0dabbd574c18U, 0xbdaaeb93bd18fb41U, 0x3e6ea8a23dd6a80aU,
  0xbda6e072bd9ce12eU, 0xbda5ceae3d1e7a75U, 0x3db62079bd7b4239U, 0x3d5fd0898341b406U,
  0x82fcd23682ba332bU, 0x3cb57a4400005929U, 0x815c3e51b8d1f575U, 0x83f0306a3d34e2dfU,
  0xbe1152ed3bb7b15fU, 0x3d6a2734013dae9cU, 0xbe10a2363d938452U, 0x2944efa3d87a781U,
  0x8291a9d9bdf687baU, 0x3dac543a824a620eU, 0x256b6b20000575cU, 0x3d1a22c3bd5e9fafU,
  0xbe0c8855bcc741f3U, 0x3b5d70ba80002411U, 0x3aa65d8900c05287U, 0x1003ba8baddf055U,
  0xbce814393d884342U, 0x10dbe39800023a2U, 0x8196a4c33db79483U, 0xbcba28dc01c992c6U,
  0xbdf1bd0bbc8405bcU, 0xbcf1f424bc081201U, 0x3d498a8c3d097f1eU, 0x812df39dbd1aa758U,
  0x801a4957000023b3U, 0x3cfa23e6bcf41156U, 0x3bf4413d3d25567fU, 0xbd2397c6bc5fc2d1U,
  0xbb241c983d665b2fU, 0xbc6575d0bc8401f3U, 0xbc35f7eebbdc7e7eU, 0x3c4210508114785cU,
  0x80054ba582052ae8U, 0xbd83ca5280002427U, 0x816d3f96b8453ee4U, 0x8186c3ad3c6b44b3U,
  0x3c218303bcc5adc9U, 0xbbf736cd0127ff66U, 0x3c4694b63c47443dU, 0x1541653cb3f51bU,
  0x8244e76fbc385d4aU, 0xbcddaab001bccd80U, 0x812e0c580000239cU, 0xbc593135bbc9b4eaU,
  0xbc2c15edbbbb14deU, 0x3cb0762c8000197bU, 0xbbde91cf804ae961U, 0x3fcd35bb923339U,
  0xbb753c82bd79d017U, 0x801cadc500001942U, 0x4f5403b355e7aU, 0x3c77d7898024ca53U,
  0x3d77cf1cbc8861c4U, 0xbbe83d093a0c6243U, 0x3c4289763c86d3fbU, 0x80bc0beebab9a77fU,
  0x80ba115d80001974U, 0x3c807c64bb988c67U, 0xbc3502503c77505bU, 0xbc06984bba272179U,
  0x3ad6983bbba89971U, 0x3d212112bb8123c9U, 0x3ca11aa9bc89a9deU, 0x3cc39aa880c58499U,
  0x8085cba780001e16U, 0x3be34fdd00001a8cU, 0x2f1b373890335eU, 0x806ee2fd3c660cb0U,
  0x39eff9da3d3d6d26U, 0x3ce0f2718032ea07U, 0xbc4ec0723c1d992bU, 0x80b37d753cd45cbaU,
  0x808ea239bcfeab75U, 0x3bae53e0808f81d2U, 0x805edc8780001d8aU, 0x3c7423803b9a79c4U,
  0xbc9671ef3ae74666U, 0x3d34481280003defU, 0xbe004daf01de9de5U, 0x81ce78be3d186ae8U,
  0xbd49031c3d17a4fdU, 0x1f07a1380004cc9U, 0x8086d1ea3d165c27U, 0x3e33ef3001d33fe0U,
  0x3dade412bd06ab30U, 0xbc98b25c3d8cc9a6U, 0x3d4f1b1cbad89194U, 0x233040bcab97a9U,
  0x2b4716400003dc6U, 0x3c8809283d720a4aU, 0x3d98c14e3c0349bbU, 0xbcffdae2bcb7e187U,
  0x3debd24fbd8aa98cU, 0x3cb3bbe7bb9afd7cU, 0x3defdce7bd8abac8U, 0x3de44ff4028a28d2U,
  0x1007bc8807bf732U, 0xbc0b05fd00003f40U, 0x2639e1d39bcd703U, 0x1e1b7d33cbcd357U,
  0xbca52095bd1247c4U, 0x3d71ef0b025c9343U, 0xbd59f27d3e0da5d0U, 0x25e44e43d3cabb3U,
  0x817f2a8dbe43715eU, 0xbcb3f8c0028b133fU, 0x201762400003ea2U, 0x3d2a3c843cb907ffU,
  0xbd41ebd7bce52208U, 0xbc4cc555000029cfU, 0xbc299196018b3e1eU, 0x80b641e53a908b1bU,
  0xbba014aabd50f656U, 0x81b23d27800029a2U, 0x15f752bbc714eb7U, 0xbd525c58806d9ea3U,
  0x3ce99aba3d92f5bbU, 0x3d0f00423c228844U, 0xbd6e4038bc8d5bc1U, 0x802c1f113d511769U,
  0x5ec4d20000298fU, 0xbd5eb06bbc29c048U, 0xbc86b41bbdf01e1cU, 0xbb468f303ba5a180U,
  0xbd6fef3d3d03cf82U, 0xbc7d9b823c55e2a6U, 0x3d49151ebd52f2f8U, 0x3cd9408d0150e40aU,
  0x1a41ee01e85366U, 0x3ce6806200002b02U, 0x7bdd20b89f22c3U, 0x1a627f5bd96b644U,
  0xbb0cc89bbbf2b4bdU, 0x3c8e376681619077U, 0xbcdc467cbd31a064U, 0x1b7d3ed3d86d128U,
  0x16a1e38bc081b89U, 0x3c29d727015a4e0fU, 0xe56d6a00002a6bU, 0xbc518e3fbc2298f0U,
  0x3d3ef8c5bd2a421fU, 0x3cdc102f00003d1bU, 0x3c88f0bd80e3826aU, 0x80e4c003bc637bdaU,
  0x3a939fcbbab5c006U, 0x11baffa80003ba4U, 0x809f29393d2f3e1bU, 0x3d02da2800a43303U,
  0x3c250f98ba5d0f56U, 0xbc0a1a643c53bc59U, 0xbdabe5d4bcb5fab7U, 0x49af46bd28ebeaU,
  0xb01ad4800039cdU, 0x3b7103283b876d1bU, 0x3c980257bcef5719U, 0x3bd91361bb07e5a8U,
  0xbcc8db6f3ceb5a23U, 0x3aacb07dbc25ffa6U, 0x3c7ccaab39fe0cc6U, 0xbba0350f0100f394U,
  0xea2c268178a37bU, 0x3c0f4fa680003a9cU, 0x8066cdba3a5c7d9aU, 0x8183a60fbdf48687U,
  0xba26f6ff3c4dbba6U, 0x3c4b25c680bf96d3U, 0xbd57b89e3ce5f09fU, 0x8131ecd53cfb1fa7U,
  0x1896ace3cdd9983U, 0xbbe0a7ad80329691U, 0x1e83b9780003bd3U, 0x3d2bf896bb04ac05U,
  0xbca448af3de5fc8aU, 0xbccb7ca4800043a6U, 0x3de29fce813cbddcU, 0x1701666bc5d908cU,
  0x3de39444bc457ea3U, 0x56f1bb00003de1U, 0x1879e34bc4c3399U, 0xbd11c1eb0196c12aU,
  0xbdbef2013de4283fU, 0x3da98b6fbc83d729U, 0xbca0594d3d1e0273U, 0x822fa3eabce67443U,
  0x1d90a9c00003e7dU, 0xbdc27c76bd292983U, 0x3d0a62373c34af21U, 0x3dd8cc123ce28dd3U,
  0xbd7b6cbbbd1dc35fU, 0x3b10a9193d22b179U, 0x3c3a72b23c9983a8U, 0xbe3ca720809b8018U,
  0x81ba07590193299dU, 0x3d3b8b0300004070U, 0x1f5880c38c287c0U, 0x18aa0473bebdea7U,
  0xbd43e6503ccc80b2U, 0xbda9ad94017ecf58U, 0x3d904afbbb7775bcU, 0x17e3342bb45edb5U,
  0x812fde183d4570ebU, 0x3dc2c54001853f9fU, 0x1c4e520800046a5U, 0x3cd089d5bb9c6573U,
  0x3d35102abcc8b972U, 0x3ce0ca7a00002009U, 0x3bbefc400283ad62U, 0x24d8a273bf78c83U,
  0xbbbcddf13d01f85fU, 0x274209c80001f84U, 0x1f91ba5bcc9d821U, 0x3bc16d88018631d4U,
  0xbbf0701abb9d5d14U, 0xbc552954bd1a140cU, 0x3dad349f3d0f0593U, 0x1cfb9dfbbf49adfU,
  0x1ae31ee80001f15U, 0xbc6e6d193cd97b50U, 0xbd3d94f23cf68f8dU, 0x3b7c2920bbb52144U,
  0x3bd46c6fbc8dd49fU, 0xbcfce67c3b205501U, 0x3b3276da3cf17c90U, 0xbbdc1054021e4151U,
  0x21cb11401d262bbU, 0x3c74592d80001fb8U, 0x805df56db912811cU, 0x1f40b903cdead11U,
  0xbb5b534c3c3cb415U, 0x3ce85aae004e127cU, 0x3d27abb33c7660aeU, 0x1e0685dba9174e4U,
  0x23022c53c819271U, 0x3c38155b020c30e4U, 0x1aa733f00001f81U, 0x3cc4f8e23b782dcdU,
  0x3dae54e63c8f6ee3U, 0xbda86a31000037dfU, 0x3ccb78ea8202f5beU, 0x38c09bbceba810U,
  0x3c538a86bd455f81U, 0x8174ef4600003790U, 0x805ff06b3b8203fdU, 0x3cc5a978010f8c53U,
  0x3d2e1e613c27b6bcU, 0x3c380433bd2a48e5U, 0xbd760109bcc71994U, 0x8128f2e33dc146bcU,
  0x8133a1ed8000376cU, 0x3d36ff563a4d1889U, 0x3e29d973bd545b9cU, 0x3cafe40e3c069281U,
  0xbc138767bd279c69U, 0xbd975293bb095a1dU, 0xbd3f17c93d887146U, 0xbca0db840109e26cU,
  0x190ada28066a417U, 0xbc643af900003709U, 0x812922f2ba266240U, 0x3a64a4bd78c597U,
  0xbd4e821abdc3501dU, 0xbd2c354a01aaecdfU, 0x3de8d03bbd2786a4U, 0x1389f533dcc343bU,
  0x195399fbb3195d8U, 0xbac2953a00c9ee97U, 0x814fcf4980003704U, 0xbc9e552f39e35a04U,
  0x3cb25129bd63c316U, 0x8000000080000000U, 0x80000000U, 0x8000000000000000U,
  0x80000000U, 0x0U, 0x8000000000000000U, 0x0U,
  0x8000000080000000U, 0x0U, 0x0U, 0x80000000U,
  0x0U, 0x8000000080000000U, 0x0U, 0x0U,
  0x0U, 0x8000000000000000U, 0x8000000000000000U, 0x8000000000000000U,
  0x8000000000000000U, 0x8000000000000000U, 0x80000000U, 0x80000000U,
  0x0U, 0x80000000U, 0x0U, 0x80000000U,
  0x80000000U, 0x0U, 0x8000000080000000U, 0x80000000U,
  0x8000000080000000U, 0xbc3cd5a6800044c1U, 0xbc079732815719e6U, 0x28667d73d6bebd6U,
  0xbc131211bc7b11f1U, 0x810a522780003d54U, 0x81e81212bca0e5baU, 0x3d16d3b7813df2c6U,
  0xbd87d9e2bb9f28bdU, 0xbc78a92e3c9e21caU, 0xbd4060b0bc72aa31U, 0x210bdbf3daff2e9U,
  0x8207a1f780003ee3U, 0x3dd655603ac3aa5eU, 0xbc9c10b03c4b6387U, 0x3b8561e8bb9f2abcU,
  0x3c197ff1bc117a3bU, 0x3c83e0013855cfddU, 0xbd761a07bbc0e0daU, 0x3d8820cc81eced94U,
  0x297c80902c52693U, 0xbbbb3a12800048b2U, 0x8126f586b90e9399U, 0x2331de9bd25abc0U,
  0x3c815cecbd3baf0eU, 0x3d1244c2820ceda3U, 0xbdb285ffbc08d6e3U, 0x81f821003d3edd49U,
  0x2fb4fdcbdd99b59U, 0xbc48470001852862U, 0x1980c1680004159U, 0x3b1443333c8529b1U,
  0xbd08c9163de112d7U, 0x3daadc1600003199U, 0xbd0ffa958088aaddU, 0x8179d1373d09e009U,
  0xbcf780663ca4f42aU, 0x4aeaa800003dbaU, 0x16eac72ba93a764U, 0xbd25fcce0147cfc4U,
  0xbc3e77d1bcc97831U, 0xbccacf103d245e40U, 0x3c17de4c3c817a61U, 0x8101dd343d0cf4d9U,
  0x8182b3220000234fU, 0x3ce763983da0f638U, 0x3d22edafba6dd1bfU, 0x3c3cb8e1bc4a4e90U,
  0x3c2c655e3c158ccfU, 0x3dca96993cac4e6aU, 0x3bd8ac113cd1e3baU, 0x3a8eecb181ba7eecU,
  0xffca298082d81cU, 0x3caf73e4000030e4U, 0x810a77e2386a2141U, 0x3d52ddbc650d0eU,
  0x3cdd681b3c2bab30U, 0x3e21a0ad00ad1a52U, 0xbd4f98413d01a150U, 0x811e1f1a3c4251e9U,
  0x1710ca5ba43f7f3U, 0xbc675855809065b3U, 0x60404f8000306eU, 0x3cb095253d808d47U,
  0xbc19d80b3c0886c4U, 0xbc9f921000002defU, 0xbcaecee9811f7f7bU, 0x81a5f81f3b781954U,
  0xbd2e05f3bc9eb22eU, 0x20f951680002d30U, 0x81ea6b2d3d1d74d8U, 0x3d46ee61805de6dcU,
  0xbbfa32993c8108abU, 0x3c07198bbd91c71eU, 0xbe12694f3d080ba1U, 0x81350fd43b8b7effU,
  0x81cfa21f00002df6U, 0xbcc061f4bd3feb01U, 0xbb98e14bbdbc90f8U, 0xbb89930abc9f9c68U,
  0x3d852a0cbc26ed58U, 0xba7065c03b7746e1U, 0x3db7a15abd532f38U, 0x3c8c546f823c1815U,
  0x82088106828f249fU, 0xbc774c9600002cfbU, 0x80e38bc939600d5dU, 0xe64fdbbc285befU,
  0xbb87cbfe3c2a5d36U, 0xbd2a7d2d8215b4a2U, 0xbc4459ad3cb6cee9U, 0x92d6c4bbd41fcfU,
  0x81db961cbc634d0cU, 0xbbad4d0a819e886bU, 0x81391b5a80002dc0U, 0x3c2f273fbaa9950bU,
  0x3cee12633d89a53eU, 0xbc51fe9f80002ad6U, 0xbd14cd850213086dU, 0x2227c7a3d13b4baU,
  0xbc5d4ea73cb45473U, 0x81c1fdf800002875U, 0x9a8c4f3cd2b9bdU, 0xbc8eefaf01ab06ebU,
  0x3bee59f1bceb2d41U, 0xbc9df091bd594634U, 0x3baccb353ca56df1U, 0x21a6e90bc806623U,
  0x19412c000002871U, 0xbc48fca3bafab54fU, 0x3c8ecbf6ba501030U, 0xbcafa4afbc149461U,
  0x3d8682753d3eeb7eU, 0x3d206dbbbb9a12ecU, 0xbce2e1c93ca58d33U, 0x3d0404d502b01a90U,
  0x1c3b1ff00fb9998U, 0xbd4ced45000029aaU, 0x11d19a43939745aU, 0xee4ba63b252ad7U,
  0xbcad416c3d3a744aU, 0xbc22de8781ec56f9U, 0xbc9245683dca47a8U, 0x81138f743dbcaca8U,
  0x8215564f3c9c3e3eU, 0xbc4205a5021924fdU, 0x53494200002c16U, 0x3d210bdcbcb73a72U,
  0x3bfff8233ca748fcU, 0x3cdd5d0100006b34U, 0xbc7c3dcd01bfd75fU, 0x1a2a18abcaef8b1U,
  0xbcc529dd3c107681U, 0x251e3ab80005831U, 0x2389b0b3cb9508cU, 0xbd28ea768219cb75U,
  0x3ce7a4ecbcd8bb8aU, 0xbca04f133b15d3ecU, 0xbd341c2fba8423b6U, 0x8208f7dbbae58a8dU,
  0x81117565000059ccU, 0x3a7de6aa3c8b7540U, 0xbbe88ec43d049a7bU, 0xbd168f5abc52a852U,
  0xbd29ba6f3c370a55U, 0x3c2fc735bc62aca3U, 0x3d425dd53d613c28U, 0x3bc0e43801d34952U,
  0x137d51081fc739aU, 0x3c3bc52d80006efcU, 0x815e3b5339bd4166U, 0x277599e3c80a521U,
  0xbb1ec9313b410621U, 0x3cf2440d007a202fU, 0x3c0945b63cbd01cfU, 0x12886c23bb3f95eU,
  0x1edebaebc0dda83U, 0xbcafaee0816591f1U, 0x14dd3d8000057c9U, 0x3c8590f1bb9379c4U,
  0x3c4274c73d0bf0c1U, 0xbda203080000337dU, 0x3b23b61480b36818U, 0x8204eb21bbc08008U,
  0xba10ca2b3ceaa7beU, 0x813dc9fa000032f7U, 0x81d8097abd19c17bU, 0x3c90c1878118a926U,
  0xbdd9a1bdbc352a5cU, 0x3b9b4f98bd13917fU, 0xbc7652a33d82f227U, 0x819bb8ee3b86af1eU,
  0x818ea417800032a7U, 0xbce7a00ebd07be41U, 0x3c2055a8bd92382fU, 0x3ca5e1e63bb13b62U,
  0xbc478822bd61b27fU, 0xbcbcf77fbc083f47U, 0x3d8900c03cf31b81U, 0xbe1d03388171d310U,
  0x812afae6822ecb08U, 0xbcb9f6620000323fU, 0x81270189bb29701bU, 0x24fae243c5543beU,
  0xbda050be3d17302cU, 0x3c0bf5958203ea05U, 0x3d6fe17bbd6d6f68U, 0x82459522bbae10f0U,
  0x284de23ca2bc29U, 0xbbc63beb81f795ceU, 0x81725bd980003357U, 0x3d8f24b3bd2ffd70U,
  0xbc316e2d3b3e78c2U, 0xbd8a626d800043e5U, 0xbc66ac078247a929U, 0x24b3445397a48b9U,
  0xbba474343ac87b80U, 0x170028500004cb4U, 0x4189603d06d05cU, 0x3b861555005215dcU,
  0xbd0ec516bc4090a9U, 0x3b82261abc46021eU, 0x3cfc4bdf3c8e90d0U, 0x82a0f8af3d4882ecU,
  0x828bddf000004543U, 0x3cb737f9bd072f16U, 0x3c29c585bbb7f0f1U, 0xbbd267193c1a1ce4U,
  0x3cb3febfbb33315cU, 0xbcac845bbb32c9b6U, 0xbdfe331ebc63193dU, 0x3c0322c6003ee399U,
  0x81b0be1d81b99d65U, 0xbcc23cbc00004648U, 0x829f681fba35bf64U, 0xf9ad553deb28b9U,
  0xbc1a5901bd9c4bf7U, 0xbc48418101c6753bU, 0xbb6ebeaebd03d8fcU, 0x1128ddc3aee6843U,
  0x821568153b0ec629U, 0xbc76660d81937679U, 0x81176a4b00004512U, 0xbd68c19c3959b996U,
  0xbd86d72cbd0e96caU, 0xbc33f93b800034deU, 0xbd775a7c81b67c53U, 0x824893aabd92e2c5U,
  0xbc63d77b3d02e2e1U, 0x824c61a3000033c3U, 0x8210ab303d8d63f4U, 0x3ca7414002312337U,
  0x3cf11f00bd0cfe1eU, 0xbca18614bdbbd6e3U, 0x3c2cb0083ca15a79U, 0x828b87adbdccfc03U,
  0x81c5fd32000033e9U, 0xbd00ccb6bd46d9bdU, 0xbcebfdc4baa231abU, 0xbc95512bbbd1dac5U,
  0xbd0617a63e279a77U, 0xbd863f29bca37e4cU, 0x3d8a99d53a8bcfd3U, 0x3d2e177d81bdebbfU,
  0x81b093cd80122cddU, 0xbd92e8ab800035b5U, 0x820ac3e3b6117af7U, 0x828e1780bb4dfbecU,
  0x3d0a221dbdaf299cU, 0x3b6fe2c702591541U, 0x3c49113dbc921e4fU, 0x14598d5bc6d7376U,
  0x825f38e53d322a4bU, 0xbd19cbba81957f1bU, 0x813d3e320000340dU, 0x3d8b8eb3bb1648e0U,
  0x3d381bfcbc506242U, 0xbce3502b80004369U, 0x3c82096501c60cbaU, 0x19c5e453cce9094U,
  0x3ac95bf3bccffda5U, 0xa2284b80004565U, 0x216f99abcf24c85U, 0x3d1b6557815e0f1eU,
  0x3d3557803cac53d0U, 0x3ce3168ebbf690e4U, 0xbdb5bb6b3ca90df6U, 0x8220e7bfbbd58e5bU,
  0x80233c26000048acU, 0xbd02d6afbb014592U, 0xbd04fe78bc68a2edU, 0x3bc5ff35bbfdb10fU,
  0xba8e7cd3bcac705eU, 0x3ca357e83cbbf4d1U, 0xbb4ee418bd64aee7U, 0xbd43020d02573582U,
  0x816a65998033e8eaU, 0x3c87bad300004ba4U, 0x99324f394bb7d7U, 0x1ad4622bdd576b8U,
  0xbd08cd873cf911c1U, 0xbcedacbc00f71a48U, 0x3b136e8cbd0450b8U, 0x1be25cd3ca45d84U,
  0x8199287ebc9bdf8eU, 0x3beabf68013ce329U, 0x81e14bf300004ae9U, 0xbc32db473c2fe057U,
  0x3cd666243bcc5eecU, 0xbd8cc235800039caU, 0x3caf13b20002c3d3U, 0x816d61ce3d45d778U,
  0x3c0d9a8bbd50930eU, 0x8271f033000039b6U, 0x81064dc33d1f7cc7U, 0x3c3298d081ce7d7dU,
  0x3d3e79033d6fd172U, 0x3d6c4117bdbbf30fU, 0xbd91ac4a3dde397eU, 0x8227ac533dfeef33U,
  0x80a9d8bd00003921U, 0x3c41e5b43b40341aU, 0x3c919540bd344bedU, 0xbd19f7e43ba1186eU,
  0xbd3fd15fbd63215dU, 0xbc668a3b3cdcf502U, 0xbc72d6e1be0ca4f4U, 0xbd08a5ba81f45745U,
  0x8269cb100170334aU, 0x3c4234d800003bbcU, 0x81036e4639328a32U, 0x81add7a13af83f8aU,
  0x3beffde33db0c733U, 0x3d70430b015e7623U, 0xbca01a2fbd28c699U, 0x8113af783cdf3b9dU,
  0x8294a96b3da816dbU, 0x3d1cc88882297d60U, 0x8218d4ee00003a49U, 0xbdcce709bc8aa663U,
  0x3d4af0293c81e72fU, 0xbc8a4d5280002182U, 0x3b16de32805c38bcU, 0x80af9e1bbca1bfc9U,
  0x3ae309453d05d81cU, 0x130242d80002425U, 0x80cad0a73c1e690aU, 0x3c0947d88148837eU,
  0x3c5525703d214d38U, 0x3ca67d323cecf698U, 0xbbc11774bd2c606fU, 0x8084798f3c665c6fU,
  0x806a8a8f800021fdU, 0xbce97aea3c32cc26U, 0xb9f4e973bb89d1d7U, 0x3bdee09f3b187ebcU,
  0xbd5755b4bc4e2766U, 0xbce3ddc63bec9850U, 0x3be2bcc13d58c452U, 0xbc88f3c280e87798U,
  0x8112241e8126fa29U, 0x3c0a00dd800023a9U, 0xc4c9f0b835bf34U, 0x13a1a943c0d4e8fU,
  0xbc8c294dbd570b88U, 0x3ba7f99e8100f19fU, 0x3b8d991bbcb8d3beU, 0x463cbb3a807820U,
  0x812e9b06bcac4091U, 0x3c8265d681b80c62U, 0x8122c5eb0000225dU, 0xbbb926573bace6b0U,
  0x3d0c0fa6bd214188U, 0xbbf5f29b80004115U, 0xbce82e6381e85a1bU, 0x82252278bc94a604U,
  0xbad9b2d6bd0725acU, 0x81dd28d780003c26U, 0x8186de743cbbe84aU, 0xbd634ca98163c44bU,
  0xbd612ef9bd3b0eafU, 0xbd027661bce1a186U, 0xbd2383c83d01d635U, 0x827f3d23bb2e1365U,
  0x82a7732280003c60U, 0xbd61bdbb3cc81b13U, 0xbdba96853d8b809cU, 0xbcc11065bc04b2cfU,
  0x3c0db62f3c6545bdU, 0xbd0ebf99bbd42d2fU, 0x3e1d620aba89fc34U, 0xbd91357681bb0d99U,
  0x81f77ed2820498c5U, 0x3b9f8997800047c8U, 0x32cb1c36afa57aU, 0x827e5f0dbd5fbf49U,
  0x3c9c1c1c3d176536U, 0xbd52039e80592226U, 0x3bd7b23abc58c6d7U, 0x8246fb47bd4ca874U,
  0x25df30b3d17d930U, 0xbc821cfe8294e5faU, 0x822b30d500003d1fU, 0xbb561747bb16b1a7U,
  0x3beb49483d9dda61U, 0xbd3bfc9300002957U, 0xbd41a44200de8993U, 0x124cbbb3ce963b7U,
  0xbd0d2c19bb991f3fU, 0x246966200002886U, 0x81240a6c3c934a87U, 0xbc2905088292c128U,
  0x3d2f64b3bb3a9ad5U, 0xbc6d8dd6bb4834f0U, 0x3c9a8ad13dcf0025U, 0x22c3e6e3d3dccacU,
  0x200da3700002890U, 0x3cf3d3703b8a550eU, 0x3c2c1318bb177b09U, 0xbda23ca3bd00c00aU,
  0x3d077c753b0628e9U, 0x3d940a753c7488a4U, 0xbc8567d93b21e925U, 0xbc8ff60d81a1c2e1U,
  0x827caf2c0130a7d7U, 0x3c117033800027ffU, 0x1a4847ab96c6de6U, 0x809e4f6a3d57d0fcU,
  0xbbf9c79e3e06810cU, 0x3a7fda82822a6426U, 0xbce6bafabd426f51U, 0x8246d5f43d721c2bU,
  0x8228c9343df208dbU, 0xbbcbd8f8817e458eU, 0x81b3f40900002887U, 0x3b8cb1c3b99108b8U,
  0x3a9cfddcbd1c03a0U, 0x3b32591700002ae4U, 0xbd18b86182340e3eU, 0x1d4ee793bfe9aceU,
  0xbbdf19813d2f6ae3U, 0x202c8e880002b20U, 0x13de39d3c7f3959U, 0x3b31a0af8135c61cU,
  0xbc81a066bba66a8bU, 0xbca0bd4a3d042e96U, 0xbaba4d2fbd6db622U, 0x81aa0bd13d2cc00cU,
  0x8038be9000002aacU, 0x3d698c663cdd5139U, 0x3cfc34e43d53d800U, 0xbca2000ab99dba40U,
  0xbbaef700bd5c6961U, 0x3cd54230bc3d92c2U, 0xbcb25f3f3d7a7566U, 0x3d8400738202bf57U,
  0x22958440262cb4cU, 0x3cacbd8000002b69U, 0x18c6eacb8476968U, 0x215a7c03d8bcba3U,
  0xbc3dbb35bd55ab80U, 0x3d3d336b81713f16U, 0xbd9345c3bd3c4378U, 0x81b491253d72eb00U,
  0x1196fd5bcd13cc0U, 0xbc22b964018a97fcU, 0x213f58900002a15U, 0xbc344f09bc7a265aU,
  0xbde96e5f3b3995c9U, 0x8000000080000000U, 0x8000000000000000U, 0x0U,
  0x8000000000000000U, 0x80000000U, 0x8000000080000000U, 0x8000000080000000U,
  0x8000000000000000U, 0x80000000U, 0x0U, 0x80000000U,
  0x8000000080000000U, 0x80000000U, 0x8000000080000000U, 0x8000000080000000U,
  0x8000000000000000U, 0x8000000000000000U, 0x8000000080000000U, 0x80000000U,
  0x8000000000000000U, 0x8000000080000000U, 0x0U, 0x80000000U,
  0x8000000080000000U, 0x8000000000000000U, 0x8000000080000000U, 0x80000000U,
  0x8000000000000000U, 0x8000000000000000U, 0x80000000U, 0x0U,
  0x8000000080000000U, 0xbbeb174600001ff2U, 0x3c6a1c6e01566e66U, 0x886e9abc8dd0f9U,
  0x3c722a2fbc311cdeU, 0x19bd3a980001f80U, 0x800ad0cb3d664666U, 0x3b9593b900574282U,
  0xbcbb07243cbf99cbU, 0x3bfc797abcbb111fU, 0xbc32a75f3c06e9b8U, 0x8122a810bdab88f4U,
  0x58cf5580001fccU, 0x3c0490063d032631U, 0x3cd68dc3bb01cdd0U, 0x3d0919ee3ca4d16fU,
  0xbc1e26ed3bdf033eU, 0xbd062d9a3c383d00U, 0x3ce166303cdf876dU, 0xbd042a4301071932U,
  0x14d1ce101330a02U, 0xbb4fbfb700002676U, 0x1c98376b929d339U, 0x8029b536bc960f11U,
  0x3c8f6ae5bbd98a53U, 0x3b73fbd10062fe5dU, 0x3c5f2647bd16e71eU, 0x186bda9bcf81747U,
  0x19246cbbcd7cb96U, 0x3d10b98a005f187fU, 0x19be508000020dbU, 0x3cf899c0bb139327U,
  0xbcf44037bcecb412U, 0x0U, 0x8000000000000000U, 0x80000000U,
  0x8000000000000000U, 0x0U, 0x0U, 0x8000000000000000U,
  0x8000000080000000U, 0x8000000000000000U, 0x8000000000000000U, 0x80000000U,
  0x80000000U, 0x80000000U, 0x0U, 0x8000000080000000U,
  0x8000000080000000U, 0x8000000080000000U, 0x8000000080000000U, 0x8000000000000000U,
  0x8000000080000000U, 0x8000000080000000U, 0x8000000000000000U, 0x8000000000000000U,
  0x8000000000000000U, 0x8000000000000000U, 0x8000000000000000U, 0x0U,
  0x8000000000000000U, 0x8000000000000000U, 0x8000000080000000U, 0x0U,
  0x0U, 0xba234d7d00001ab8U, 0xbc0faf5b8158ff96U, 0x812f2d383cc89ee5U,
  0xbbabbaa2bcd5ae1aU, 0x8108300d80001ab6U, 0xa5836bcf6a577U, 0x39f81d48814e8ac2U,
  0x3cbdac1a3c24b10cU, 0x3bb38490bae8c99bU, 0xbda61b5ebbfcb25fU, 0xf625c3d7eb0c8U,
  0x2155a780001ac4U, 0x3c922078bc814a7aU, 0x38b3e669bc99cff2U, 0x3b302bce3ab6f34eU,
  0x3bd1e7b2bcd39900U, 0x3b711a363b035554U, 0xbaa576bbbd53ab32U, 0x3b25fffb81e7b755U,
  0x8117715801635808U, 0x3d061bf080001b44U, 0x81b1f280b87a6cffU, 0x810d50d8bc6256bdU,
  0xbcef67343cb36f7cU, 0x3b4e798a811c68c9U, 0xbca20e74bbf45e76U, 0x38948f3d063edbU,
  0x14b6bfabab777a3U, 0xbc154d21008e7e13U, 0x80828c0b80001ac3U, 0xbcd079033be9c6fbU,
  0x3b144e883cf02dbbU, 0xbd22b94e000041c4U, 0xbc82cc9f0027fdddU, 0x359c20bd1af222U,
  0x3b388215bd7bb11cU, 0x185bde080003f2aU, 0xf6f8ab3db1ace4U, 0xbcc9106f01ec3cfcU,
  0x3d9bd028bd3523c5U, 0x3c395bfd3e0712cfU, 0x3bab891fbd087d34U, 0x806d72ffbdb7bc07U,
  0x11ebad60000400cU, 0x3ae84d293cd869ccU, 0x3c799af1bd636b0aU, 0x3c0e648c3c7844c5U,
  0x3d56f6ef3ca635eeU, 0x3c24db303c3d17d4U, 0xbd2f95323daee522U, 0x3caa2d0901fd05d4U,
  0x801b229f8021d94bU, 0x3d42000580003ef5U, 0x160ace1ba342defU, 0x1a6b2523e4c2cd4U,
  0xbe01affebc4b6fcaU, 0xbcf203388141380bU, 0xbc9fb288bd706a5aU, 0x520337bd325a08U,
  0x8138c4163c556495U, 0xbbce2498808584f7U, 0x1cc39580003f25U, 0xbcf0d5523bc92fbfU,
  0xbbdf3e38bd815ae2U, 0x3cc26677800038dcU, 0x3d0faed181449d6fU, 0x13712bfbd91096dU,
  0x3cc61531bbd2b14dU, 0x20b5ec08000383bU, 0x81f6fc383d05758cU, 0x3c508e2202340921U,
  0x3cae79a13c99df03U, 0x3d0900263bc1617aU, 0x3b72d1e2be0dd35bU, 0x2783676bdb6c285U,
  0x2329256800037e2U, 0x3cd9b9753c469ea5U, 0x3c1028763d2b6263U, 0x3dc6b24d3d3f75e4U,
  0x3c397fa0bd3b6babU, 0xbe3bd98b3aea4090U, 0x3c8ad6873deb73efU, 0x3c1dd1b28191e576U,
  0x81b3b64302183cddU, 0x3c24bfc8000037c8U, 0x25d96feb9d813d9U, 0x819dd8ce3d0a142aU,
  0xbbf70244be16ca91U, 0x3d0e475e029c6e59U, 0xbd9c8a89bbab7783U, 0x1348bae3d07c7fbU,
  0x817b9703be40cb3fU, 0x3cdba04581c7f3beU, 0x804e0ef5000038b3U, 0x3d9b3bd03cb54894U,
  0x3d0472c83c6b7874U, 0xbd0d046600003843U, 0x3cb1514b8044dcf4U, 0x803c691dbbcd3fb1U,
  0x3cdeed74bcfaa8fcU, 0x1d4f61480003858U, 0xf10d23c86aa54U, 0x3cbc0af701b7ce17U,
  0xbde63ab8bca45ffcU, 0x3c16a5843caa06f6U, 0xbc4fed8dbd1edab0U, 0x1f521333cfda7efU,
  0x1e2ec2a0000385aU, 0x3d2c305b3c800b1cU, 0x3cdd8c0abb9c8a84U, 0x3d2b3bf03c8a2f75U,
  0xbd3a82363d42804cU, 0x3d4d2f713b2e9852U, 0x3c5cef373db89379U, 0x3d23769981590e93U,
  0x22e001d017588e4U, 0x3ae7964e8000393eU, 0x2195b1cb9034d8aU, 0x82ad83483d0dc5dcU,
  0xbc9fa6253d16d268U, 0xbc1781f40239e5fcU, 0x3c0f1a373c7b4253U, 0x201a0213dac7ed9U,
  0x8068485cbd9be2efU, 0x3b8a9b560250d91cU, 0x28b0bfe000039deU, 0x3c7d0c9f3cae5927U,
  0xbe3c16513dfd6dc7U, 0x8000000000000000U, 0x0U, 0x8000000000000000U,
  0x0U, 0x0U, 0x8000000000000000U, 0x8000000080000000U,
  0x0U, 0x0U, 0x0U, 0x0U,
  0x0U, 0x0U, 0x80000000U, 0x0U,
  0x80000000U, 0x0U, 0x80000000U, 0x80000000U,
  0x0U, 0x0U, 0x0U, 0x0U,
  0x0U, 0x0U, 0x80000000U, 0x0U,
  0x0U, 0x80000000U, 0x8000000080000000U, 0x0U,
  0x0U, 0x3caaef748000304eU, 0xbc6554ca011f4dfbU, 0x1706a8dbd8571d3U,
  0xbcf4c3eb3da23edaU, 0x177cd6a80002eedU, 0x81a7495e3db781f6U, 0x3d516e2a0219adc8U,
  0x3d910ed2bd07c3a5U, 0xbcf951ca3cc46c24U, 0x3d4dd430bc324a4cU, 0x137bd0abd8a27c1U,
  0x7ac39980002eacU, 0x3c54ce71bc7777ddU, 0xbd19ac8e3c3abe83U, 0x3c425df3bc539cd0U,
  0x3d5388e03d22fba9U, 0xbdadc63cbcde4c97U, 0x3c25a2193da496c6U, 0xbd204c5200c8c416U,
  0x1a5fd8680df3731U, 0xbd04d45600002f99U, 0x2aa77eeb82744c8U, 0x8029759f3a319d97U,
  0x3b82327ebd2c8aa1U, 0xbb6a274e8031b5e2U, 0x3d526f903d448453U, 0x12a2dcb3d9f7b1eU,
  0x103b9f2bd2e1fe4U, 0xbc55e2cb817d25e8U, 0x80c6b3a980003060U, 0x3d4493373bee7b66U,
  0x3cbf0cff3cb4f72fU, 0xbb4b041f0000255eU, 0xb9c15f7c809f6dbeU, 0x94c222bd0c86aeU,
  0x3c11d125bd1ea8f5U, 0x805bc78680002472U, 0x81faec3abc368bccU, 0xbcc128128011914dU,
  0x3c487f02bc6bc41fU, 0x3c4221f83c9a5eeaU, 0xbcbe44fbbc5c649dU, 0x81c840b23c2da8aaU,
  0x815cce59800024c2U, 0xbcf38f943c86771bU, 0xbd6af71d3c13302cU, 0xbc71ef6bbb444adcU,
  0xbcc5a1783ce1ea1aU, 0xbbb5fe003b9e69fdU, 0xbd2f1c303d3774acU, 0x3dd9c65e8200ff6bU,
  0x812f409c810f021bU, 0x3d6cea5380002566U, 0x8147d25cb9ea2f7fU, 0x80a2e0a53cc545cbU,
  0xbbb346ecbd199408U, 0x3c58dd1f80dfb4bbU, 0xbda6dda7bd050653U, 0x814603943c748fcdU,
  0x815a66b33b33c94eU, 0x3c59cb0f80ae580fU, 0x81078f76800024bbU, 0xba88ef083c08a0a1U,
  0x3cf292eebd41bb5dU, 0xbd52982d800036ecU, 0xbbc76b8b82880d02U, 0x827894563af36973U,
  0x3a90957abd7d8794U, 0x819b6d2a80002f78U, 0x81ba2b533ca4ac1fU, 0xbbdefadc82689024U,
  0xbca4de70bc98a064U, 0x3b86fd10bd31a294U, 0x3bca9dbb3d1d1b8bU, 0x820c86523d3c7adbU,
  0x81aaf4d280003072U, 0xbd47a346bc273739U, 0x3cee8169bcc1c05bU, 0xbca97813bc854498U,
  0x3c3a49fa3ca732a5U, 0x3baa9d3c3c9771c4U, 0xbd594495bb8a127aU, 0xbd00a994823af20cU,
  0x828e0498828f7b6fU, 0xbd329de200003b90U, 0x82bfbc07391edb95U, 0x8287e421bcfb6a29U,
  0x3ac83cfb3e2a38c0U, 0x3bfbb46d826191a4U, 0x3d6a4a85bd1ed493U, 0x828657343c1cc561U,
  0x828014b13cf2e9f8U, 0x3c9eb6cd8227ab4cU, 0x813069328000312fU, 0xbd16fbc03cb0015dU,
  0xbbf095c538a6e0eaU, 0xbcae161c00001b9dU, 0x3c593d62010715e8U, 0x101e439bb6c29d0U,
  0x3b47a8c3bcdab74bU, 0x812686b380001b85U, 0x9971a0bd03ee38U, 0x3c3987038154a4cdU,
  0x3c6a77053c1f8834U, 0x3b0285a9bcd8b655U, 0xbd5e1bb0bbb1c97aU, 0x81146e593d6fa547U,
  0x8085233b80001b71U, 0x3b602596bc9c3975U, 0xbcf89f77bb5c52bbU, 0x3b1dd745bbab6556U,
  0xbc2ad826bb711207U, 0xbcec12223ba1000dU, 0x3c5f0cbbbcc430d4U, 0x3d710b6e80461f3eU,
  0x81165b5400042144U, 0x3bb827f800001b36U, 0x136796037c5c2efU, 0x21669f8bc4632f0U,
  0xbcc8b10ebc5b1d53U, 0xbbe158b380b727fbU, 0x3c980632bc929065U, 0x818bb4513cef08dcU,
  0x144bf303c583348U, 0xbb1750c4003baeb8U, 0x21ff7f00001c18U, 0xbbafa0873bd35634U,
  0x3c14bcc63c6b038fU, 0xbc9fc4728000270dU, 0x3cc7c4b601872a84U, 0x812725953d15966bU,
  0x3d05e418bd9af00cU, 0x3dd503000026d1U, 0x80424537bb6e52f4U, 0xbd78b3530113ce99U,
  0xbcaa5e373dc85086U, 0x3d36a9adbd05e9a6U, 0x3ccf7f20bd3271ffU, 0xb27d74bd0bcfa7U,
  0x3721c3800026b7U, 0x3b490e99bb59cbd6U, 0xbcbae2203c9d189cU, 0x3d6092593c255350U,
  0x3d470a22bc9b76f6U, 0xbc8f01de3d0fdddfU, 0xbd54bc67bcf79297U, 0xbd5e08f8010ed1cdU,
  0x8011329680d22042U, 0xbd16c4c200002731U, 0x18f0271ba1ebce7U, 0x2054febbb5fd777U,
  0xbc238f8f3d3b5799U, 0xbcb6d41f804742d3U, 0x3c0a9336bbdeb57aU, 0x80a2e8053d628774U,
  0xdcb4063bb84b3cU, 0x3d80b875012a2029U, 0x80959d01800026b7U, 0xbc1e3411bcad6e5fU,
  0xbcd05c523c7bdaddU, 0xbc63e54780002f13U, 0xbd86c3aa81b802e2U, 0x81561ed4bc268734U,
  0xbbe485ffbd3b3f65U, 0x81958eae80002f0aU, 0x13e6125bd8661abU, 0x3c54cd938146c195U,
  0x3a8de531bd507ce1U, 0xbcb995933c99aa8aU, 0x387a4d49bd19cdddU, 0x11dcdfc3e132b7bU,
  0x1c68cac00002f6bU, 0xbd2c80a93c1120b9U, 0xbd6a5ee3bd153924U, 0xbd824e1bbc3249d2U,
  0xbc978915bd958175U, 0xbc8d6f0b3abec587U, 0x3b4f242bbd1fc23bU, 0xbbe52f408010fc94U,
  0x8079f8cb81073570U, 0xbd40ee5b00002f78U, 0x81e8d7603a0a0380U, 0xd01b343d841a25U,
  0xbd2f91ecbd333e1fU, 0xbbcb043f80d228afU, 0x3b7edec7bcb30a7cU, 0x817c63db3e09bd46U,
  0x81837ea4bd3b07c8U, 0x3b434784012029dcU, 0x9ac05400002f1fU, 0xbd6b8bb73cce39e1U,
  0xbd960576bc87844bU, 0x3c8894cc80004780U, 0x3dc36081018590d1U, 0x822df7163c8bc7fdU,
  0x3d1b0aecbc22dee0U, 0x8240304f0000462cU, 0x8183ab0fbc9ad652U, 0x3d807bdd81448b62U,
  0xbe387ed43d99802cU, 0x3ca89388bc39307bU, 0x3bc2588e3d863a0bU, 0x81899d083bcbe678U,
  0x8043662b80004611U, 0xbe139c1abd3e10f4U, 0xbda70e61bd890d6cU, 0x3cb833873c0a5084U,
  0x3d18a226bd92b1b0U, 0x3dbee72b3cb39d98U, 0x3d48d00bbcdc2805U, 0xbe2d14140202ea52U,
  0x81a95d4001bf34cdU, 0x3ab88399800047a4U, 0x82013e7039960b2dU, 0x82244dbc3cdc1a5fU,
  0xbcc03b353e0a5379U, 0xbde0ca6081c46bc5U, 0x3afef1fe3de55056U, 0x19f33c43d85df40U,
  0x823be8473c85cf19U, 0x3bb831fc818864e9U, 0x811603cc00005077U, 0x3cd84cd6bd12cfe8U,
  0xbdbffbd13c428319U, 0x3cc6a61800002877U, 0x3bb7884801538b35U, 0x8114436bba01d49cU,
  0x3c0a14753d0382d3U, 0x8094f62e00002756U, 0x81a12a233d24a546U, 0x3cad36d401e3ee08U,
  0xbd193515bd036be5U, 0xbc2cc5e13b1629efU, 0x3d4260f83b74e34bU, 0xd186a2bc327a9dU,
  0x15839ba8000270bU, 0x3d3447133d0f5582U, 0x3c943f183c898828U, 0xbbfbdaf1b95fcb83U,
  0x3d235869bbdfbbfcU, 0x3d2dcd08bb6b59ccU, 0x3d2de2033d3990b1U, 0x3c29a5ee01308c01U,
  0x90c8b38179a6e5U, 0xbba9834100002777U, 0x808aeeaeb903aa07U, 0x8139112e3d31ca9fU,
  0x3ba5132b3b09431aU, 0xbb4d1553817b6a04U, 0xbb0864bf3c1fa0f2U, 0x819a747bbd10d80dU,
  0x81a2f66cba35ba87U, 0xbbaa153301a801d0U, 0x1bde2ac00002744U, 0x3d84feec39af7bf7U,
  0xbd4597283d9a3e89U, 0xbd8c3877800058d7U, 0x3d2f3b2782d2ad3aU, 0x82bef494bcbf55c6U,
  0x3d4c3bb53bd56982U, 0x81c9809b800058d3U, 0x8259ee973912d40fU, 0xbddaa62882f4c625U,
  0x3d2983393de2e397U, 0x3d97b07c3da6c2d6U, 0xbdd3ce223c64cc42U, 0x8f408d3e19f8a1U,
  0x82c01076800058d1U, 0x3d3bab45bc741acfU, 0xbcdb02f93c59d963U, 0x3bf3747f3bab72f5U,
  0x3cb34736bd476918U, 0xbd8c15453d53e0a5U, 0xbda5fec2be2e0210U, 0xbe1ec16d82d19662U,
  0x8312f03681b5041aU, 0xbd9d0bc7800058a2U, 0x1669ea7b99f115cU, 0x831bb7aabd6d6bc3U,
  0xbddd07343e1cde84U, 0xbd5fcd29828093a4U, 0xbd8f196fbe4d2558U, 0x831a97763d66c37bU,
  0x82b638143d497c21U, 0x3dafd4cb83065bbcU, 0x81bb948e800059fcU, 0xbe2d45eb3c17e76aU,
  0xb927c0453db6a5b6U, 0x0U, 0x0U, 0x8000000080000000U,
  0x0U, 0x8000000000000000U, 0x8000000080000000U, 0x80000000U,
  0x8000000000000000U, 0x80000000U, 0x8000000000000000U, 0x8000000000000000U,
  0x80000000U, 0x8000000000000000U, 0x8000000080000000U, 0x80000000U,
  0x80000000U, 0x80000000U, 0x0U, 0x8000000000000000U,
  0x8000000080000000U, 0x8000000000000000U, 0x8000000080000000U, 0x8000000080000000U,
  0x8000000080000000U, 0x0U, 0x8000000000000000U, 0x80000000U,
  0x8000000000000000U, 0x0U, 0x8000000000000000U, 0x0U,
  0x8000000080000000U, 0xbcbf5a9800002d6aU, 0x3cec2c8d80eeecc1U, 0x154f1b83c5b9e1dU,
  0x3c93c1bdbd2cf8c7U, 0x138e65780002d74U, 0x80093242bc357e7fU, 0xbcbc6d8c01947d98U,
  0xbcc791a9bb2d6a2cU, 0x3cb7cbc83c21d821U, 0x3bb455623b515fbbU, 0x1d98487bd8570f3U,
  0x1ef4cce80003555U, 0xbddf671cbd42316eU, 0x3bd517fc3c9799d0U, 0xbc49462cbade326bU,
  0x3cbcd530bd01c6ccU, 0x3c43d19cbc668f51U, 0xbcbf54803c95e0ceU, 0xbda67a2d022baae9U,
  0x26ceca9017cac42U, 0xbcfeac6400002db3U, 0x4640d3391180c8U, 0x2431fb0bd309e93U,
  0x3c950d243dde91d7U, 0xbdc2a9e6021d187cU, 0x3d649cd33bb4a379U, 0x81362feb3c84f626U,
  0x1da6ba53763c3e8U, 0x3c82771b0194da50U, 0x1be6f6b80002ebbU, 0x399fc3ebbc2ce4d3U,
  0xbd1a171c3dbb8809U, 0x3d826c898000322cU, 0xbbfb2001005a8787U, 0x109ea79ba514827U,
  0xbc75ebc5bc1beaaaU, 0x8b8f7000002cc1U, 0xf2112a3b8dfa77U, 0xbc3d0261816a8b34U,
  0xbca457eebd009bb3U, 0xbcacfc1a3d205d40U, 0x3d31fa763c65136dU, 0x2c2ea6bd72260fU,
  0x81f85b1d80002caeU, 0x3c6ac067bb093295U, 0x3d1ed4d23c858cdbU, 0xbc518d0dbb453428U,
  0xbd0c32433a0bbd14U, 0x3c82a34bbc25deffU, 0x3d8fd0c13d8847f4U, 0xbd218887014a8b85U,
  0xe52df381a6dfafU, 0x3d40d8f900002df7U, 0x82145bda3ac11b65U, 0x202ccaabd32cf55U,
  0xbd05c4213aa113ceU, 0x3bfc29dc809687c6U, 0xbd47bec23d241e05U, 0x8193c74abbd25c0eU,
  0x8221881f3af6790eU, 0xbc5f5e63019e4f78U, 0x8052ab2700002da3U, 0xbc156bb8b8c8241eU,
  0xbcd2040bbc4d21a4U, 0xbd05459180003dd8U, 0xbb606736819df9a1U, 0x82595d943e51fdb9U,
  0xbc749bb93c703a80U, 0x814c3a5680003d56U, 0x81c361173c4dad5eU, 0x3d57cf990122c2b6U,
  0x3cc5423fbe0dfcb3U, 0xbdca56cd3d6543b5U, 0xbd19d3693d8795ebU, 0x828cd15b3d11efc2U,
  0x80c766c880003d4dU, 0x3db7a0863e14a727U, 0x3d67a1f73c62c544U, 0xbd3a7be9bc5d3354U,
  0x3d82a6debd407098U, 0x3e42021cbcab0c58U, 0x3d12159d3a65e297U, 0x3c70c5858285be4eU,
  0x824ed22882e9233bU, 0x3c10e7a000003df5U, 0x82a63fe0b9b7db80U, 0x10dd8fcbd5e057eU,
  0x3e1defb33d08eaafU, 0x3d82a90000712a8bU, 0x3b4ab2c63b9a43bcU, 0x825c06593c642a50U,
  0x8131bb143ca8c764U, 0xbcaf40fc82acb98bU, 0x821df13d80003dd8U, 0xbc8d6ffcbc597f6dU,
  0x3d9608763d108998U, 0xbd73ecdc80004586U, 0xbd676f6402247af1U, 0x82a57229b8799114U,
  0xbb8ae63f3d1d8ed3U, 0x8153220600004503U, 0x80b2247abdc50df6U, 0xbc8f479000fb83d2U,
  0xbc8e9d533c9181b6U, 0x3c8b3e30bda755ebU, 0xbdea982fbceae6d2U, 0x149ccddbd99807bU,
  0x168ae29000044d5U, 0x39ea7beabdaa4358U, 0xbd470537bdf1b596U, 0x3bac576e3c2ee17fU,
  0xbc45b49f3df00dfaU, 0xbd0bf925bbcfda32U, 0x3dd0b9bcbc64bb6bU, 0x3cda4571823c89e2U,
  0x8174da8c8220e399U, 0xbd1f147f00004590U, 0x3ac309b8bc0951U, 0x204a90cbe2597d0U,
  0xbd783c1cbd06e86dU, 0x3bea692b81ce261cU, 0x3cd66691bdad65d5U, 0x169a6fbd728e9bU,
  0x80f7c90f3ca45089U, 0xbd0edd1c80f701f0U, 0x815088400000458cU, 0x3c76ad483b13f38aU,
  0xbd6dd39a3aa1d3c3U, 0xbc5bf9cf80002f10U, 0x3d4004ed812d7cf6U, 0x81ef0f9bbb9c8085U,
  0x3c6ef590bd34943fU, 0x15291110000270fU, 0x1f6d2f7bd215bbeU, 0xbce5cde081d0229cU,
  0xbc337765bbcbd577U, 0xbc6c8963bc69bfefU, 0x3d939c16bd800cc2U, 0x821d38debd9c9a4dU,
  0x236ba7500002774U, 0x3d3ee1a53c0cf9f0U, 0xbd4aa5a9bd7fa890U, 0x3a1486d63beadb26U,
  0xbb597216bb5683aaU, 0xbcf20635bc38edecU, 0x3d3f9c523d332ce1U, 0xbc8a76f082242360U,
  0x827d75e481a98d17U, 0x3d168f9c800028c7U, 0x1199fbab8218463U, 0x28350c73d71b603U,
  0xbc2a4f783a8383aeU, 0xbcac0c84823b6da9U, 0x3c5dbca9bcade38eU, 0x81b5aab7bc37a6d0U,
  0x81c5b2eabbdd3725U, 0x3afb7e7c8108774dU, 0x1f2ead4800029d5U, 0x3c73b10bbb525fa5U,
  0xbd0fd6753d32d125U, 0x3cbfac8b00002cf6U, 0xbb38315a027bd064U, 0x23d0f533cc4ffedU,
  0xbc06855b3d00a60dU, 0x1ac0a7700002784U, 0x2048d86bb78c3b4U, 0xbd0a0a7f0130ef68U,
  0x3cef70fcbcf86a26U, 0xbcefe866bc958cd5U, 0x3cd62abb3c017125U, 0x25afe0dbd53d290U,
  0x211337f80002708U, 0xbc20d0683ccf8465U, 0x3d5218fcbc9ed222U, 0x3c95eb873b961cfaU,
  0xbac0abd13ceafcf6U, 0x3c229fd4bc5d24feU, 0xbd5d79733d18d25bU, 0x3d123986021fd819U,
  0x23ef5ea02767d8dU, 0xbc51065a000027abU, 0x19e6e89b81b599fU, 0x1a431b5bc3dcaa8U,
  0x3c8cca463c829286U, 0x3c33dd0e00259a3fU, 0x3d8aa88e3cdc978fU, 0x8066e35bbcb2fc70U,
  0x242c1f7bcb0d8d7U, 0xbd210cf601abcdacU, 0x26e631500002878U, 0xbcdf65a9bbecc348U,
  0x3cd319953d82784eU, 0x80000000U, 0x80000000U, 0x80000000U,
  0x0U, 0x0U, 0x8000000000000000U, 0x8000000080000000U,
  0x0U, 0x8000000000000000U, 0x80000000U, 0x80000000U,
  0x80000000U, 0x8000000000000000U, 0x80000000U, 0x0U,
  0x8000000000000000U, 0x0U, 0x8000000000000000U, 0x80000000U,
  0x8000000080000000U, 0x8000000000000000U, 0x0U, 0x0U,
  0x80000000U, 0x8000000080000000U, 0x8000000080000000U, 0x8000000000000000U,
  0x8000000080000000U, 0x8000000000000000U, 0x8000000080000000U, 0x8000000080000000U,
  0x80000000U, 0xbbd03b52000029f1U, 0x3d349ba0006ad027U, 0x1431f4b3c58e6a1U,
  0x3cf4bccabb234a1fU, 0x1af0c3c80002a3fU, 0x1edad693d43696bU, 0xbdc6090a004ff955U,
  0xbca883d23d7d74e7U, 0x3d8ca7d0bcbd3604U, 0x3c05530e3d2983c4U, 0x9d1d23bcb5371U,
  0x2284817000029ddU, 0xbcf4186d3d31f737U, 0x3ce23959bd1d483fU, 0xbc029e223c6a1ffbU,
  0xbbdd08fc3ccbe681U, 0xbaed2d733cf0d2efU, 0xbcd40eeabd6ce937U, 0xbc751662001c355cU,
  0x1a2a12201c0d79fU, 0xbd001d8580002b12U, 0x81299b233906af72U, 0x230fbf3bc069aefU,
  0x3d0813423e05ca4fU, 0xbc0be98a810b2f05U, 0x3d7a68dbbd85165aU, 0x14dddbabcef5f1eU,
  0x26271b33bd6f394U, 0x3d76fcbe018a5d4eU, 0xe98bcb80002ad7U, 0xbd5af3c63a7ece1eU,
  0x3c9ed756bc0efb46U, 0x3c240cda800027f3U, 0x3cb7ec2e01a395b7U, 0x145523bbc23f38cU,
  0x3c82006ebc733bcdU, 0x1cc3895800026d7U, 0x13366b0bdc094b5U, 0x3cce8c66801d5a2aU,
  0xbd597fd43d38467fU, 0x3ccbf522bd2b4871U, 0xbdc5600fbc39ec87U, 0xf05823bb2332e6U,
  0xc7582000026dcU, 0x3c6476323c82b0e0U, 0xbc81cccdbd87cfa0U, 0x3d082dd23c3b0a44U,
  0x3c8f08dc3d28f033U, 0xbbe2b7ff3cc10962U, 0xbd2315cabd3572c3U, 0x3d31d4b881e1d350U,
  0x81c98e9100b3e870U, 0xbb80981f800028f4U, 0x1bd99b238138fc3U, 0x1855bf9bcf7a9ccU,
  0xbd2046c9bd187502U, 0x3c93856f0138e695U, 0xbb5ad4f23bb358c7U, 0x145ae27bc78ddf0U,
  0x19929533c8f9553U, 0x3c571fc5013300beU, 0xd95559000027caU, 0xbca6890d3c5e9386U,
  0xbd456fafbbaa5cd0U, 0x3c53d70500002091U, 0xbd20a0f5017fbbcdU, 0x82040ab43c16d887U,
  0xbccc80f5bafb0990U, 0xa006038000209eU, 0x4333a6b9d5efa8U, 0x3c3c3bc680287b05U,
  0x3c7fac6fbd0989d0U, 0xbd00ad0d39a7bd39U, 0x3d378e883cadb296U, 0x81d000913c163166U,
  0x12e6aea00001fedU, 0x3cbcfa443a37dc7eU, 0x3c95d64eba7ecabaU, 0xbcc16827bbc301e6U,
  0x3cc9e8c8bb8131b1U, 0x3c626742bc2dbe97U, 0x3cd58d3d3ca82d3fU, 0x3cb899fc818453e8U,
  0x81b9f57601184c9aU, 0x3ca8f70d00001fceU, 0x810f679535a83a54U, 0x208ac88bd00024eU,
  0xbc92ad393d9068cbU, 0x3b2235370016856bU, 0x3d6fd7e93c9038f7U, 0x811a95cc3c616211U,
  0x7e0a5b3d57a099U, 0xbcc1ef7f81f71eb3U, 0x1b6d3fc000021ceU, 0x3cc038e0bb4457a1U,
  0x3d6613d0bb298695U, 0x3e0470223e12125fU, 0xbdf0f28dbe01b71eU, 0x3d776423be3920b1U,
  0xbcf7ad503dd5e633U, 0xbb20a0883dfbac3aU, 0x3dd0e9aabe417752U, 0xbe195b5bbd1e0266U,
  0xbed046bd3e5e7211U, 0xbadeb2703e797619U, 0xbdd27967bd28a9c4U, 0x88fe3e063ff1U,
  0xbe88a0f03d40e400U, 0xbe40c8babc91c752U, 0x3df62aa8bdd87aa1U, 0xbe0e7c8b3d6eaf74U,
  0xbd2820d83dda2d60U, 0xbd44e9323d4a057eU, 0x3caaf691bdf04ba4U, 0x3d016e580000899eU,
  0x3e895b84800089ceU, 0x3db958163d4c4cb8U, 0x89dbbe1faa94U, 0x3e155780bdd97c4cU,
  0x3dc94540be117413U, 0x3ec4dda93e7c9a16U, 0xbcc7dc6c3c8da812U, 0x894ebce37a94U,
  0x3a3f2b18be04d819U, 0x3e0cf2c6be94797cU, 0xbdce2fe63d0e42aeU, 0x3defbaaa00009d10U,
  0xbe97d4383d75157bU, 0xbde1b6c8c0caf670U, 0xc015457dbfa49945U, 0xbfdf94c4c01236b0U,
  0xbf3b726f40dcf9f1U, 0xbf87324f40a734abU, 0xc05e0d44c05f9c93U, 0x40356de13e370446U,
  0x3e9c5eb33fa508e6U, 0x3ffe5a71bf067846U, 0xc0263fa4408d8492U, 0x3fd92944402dbaf9U,
  0x3f0ea39fc03972ebU, 0xbf73b669c07cee67U, 0xbe1c201dbeb7b899U, 0xbe2402dd3f992649U,
  0x3fb99bbd400cff1bU, 0x40318209c04db10eU, 0xbfea91fdc02ea960U, 0xbfe284b3c01f0de6U,
  0xc08794c34061270bU, 0x3e9ab795402cbb00U, 0x3f54811b40c17132U, 0x3faf07a9c0c18a17U,
  0xc01eefd83f28f495U, 0x3cf8e2703fc8d97bU, 0x403cee98c01886d4U, 0xc08825463fc75b3aU,
  0xc00503f7c02775b8U, 0x3f07ea1bbfc96336U, 0x401ed1173fbf3fd5U, 0xbf2913a4bf9f61c4U,
  0x3ec3fa1dc0302423U, 0xbf01f2c03e9a951dU, 0x3dd98f173f36d341U, 0x3fb8fd633dd96e02U,
  0x3ff22efd3f9d3cacU, 0x40972f9d400160bbU, 0x3fb9cb37c08692aeU, 0x4022e824c05589a8U,
  0xc0aa382dc0b83529U, 0xc01b724440f2f4b3U, 0x402f57d23f817a1fU, 0xbf020b86c05c2f79U,
  0xc08de1c93efab3e9U, 0x40024dbb3fc0e3c6U, 0x3f3e54b34008c6aaU, 0x3e97ce6ebf03b02fU,
  0x3ddcfbc2bee80042U, 0x3fa16b5c3f3968e7U, 0x3fa9c326bf18c393U, 0x3f4f5a7a3efc037cU,
  0x3f8249f73e11d454U, 0xbe74cc3b3e7244dbU, 0x3e6072cc3ff415eeU, 0xbe810127bd279744U,
  0x3f1620353f6d1433U, 0x3f467cd1bf03e888U, 0x3e96a65a3ecbb730U, 0xc195d53640161e3fU,
  0xc232d819c225ef9cU, 0x422f21cc41caba75U, 0xc132ae05c09e2d5fU, 0x42194f62c0d0929eU,
  0xbef6aa443f433ed0U, 0xc09789553f93826cU, 0x3e3eec324049ac48U, 0xc00af079c0ab4919U,
  0x3fd00e0140cc72fbU, 0x3c94634f3ed39bd2U, 0x3fbd9fef3edef333U, 0x4056c2e2bfdb547dU,
  0x402177223fdee8d3U, 0xbfe61f47c06c5ccdU, 0x3fe1fa7540be9dd6U, 0x40258825beabd15bU,
  0x3ff8ffd6c01389b9U, 0xbf9aaecbbf8f408dU, 0xbf95b602c05746f8U, 0x3fbe29443f847a3dU,
  0xc049e95fbfafd6afU, 0xc04c6e85408c6e19U, 0xbebc3bf23c9cabe7U, 0x3e2ffeb93f0daa6eU,
  0x3f7609b63e9c891fU, 0x3f9fe519401f8dd5U, 0x4077b2823ebd55ddU, 0xc05bab873fa4bce4U,
  0xc08e77573ebd44f8U, 0xbf80de55bf58fe0fU, 0x401c1439c0a69bbfU, 0x403d25bf40c036f8U,
  0x3dc04dd3c011a296U, 0x3ff2654fc0c342d6U, 0x3fdfe863c0c7a10bU, 0x80000000be4ee136U,
  0x8000000000000000U, 0x0U, 0x80000000U, 0x0U,
  0x3f62498e3e88a157U, 0xbec02715bdda20a0U, 0xbdb00b293fb3fbfdU, 0xbf52f7f5407b2120U,
  0xc0487eafc015be6bU, 0xc07ebd79bef946e0U, 0xc0508bff4054ab65U, 0xc007a454402e1e14U,
  0x40eb6d2a4062e524U, 0x4029e3ac409e8ecfU, 0x3ffd69ecc0429d3cU, 0x40d42ed0c07249baU,
  0x3ef3a6f940389c1fU, 0x3fce027ebf90c045U, 0xbe80bad0bf868460U, 0x404a639340624d28U,
  0x4048abd3bf38b0b0U, 0xbf62079e3f1b6addU, 0x3f61a9f5beeaee08U, 0xbf1606d4beac9b9cU,
  0x3e6d51583fefbdafU, 0x3fda3464bf1cb470U, 0x3cba4a813efa0d00U, 0x3f2e1e353ec3d2c3U,
  0xbfdd1163bf39aa9dU, 0xc033883ec055f4c9U, 0xbfe39213bf27461bU, 0xbfebeec4401a82a1U,
  0xc0477ef3c05a41c1U, 0x3daadc13c001cb0bU, 0xc021b7dc3f7da32fU, 0x3fccdf6cbffc6c69U,
  0x408950dfbe403e90U, 0xc01015313f92a661U, 0xbfa1573b4042e439U, 0xbdadce483fb6af1eU,
  0xc06d375a4081aab6U, 0x3ffb09c6bf985ee4U, 0xbd1c1a80bf1c3690U, 0xbf832d783f1f476cU,
  0xc001737a3ea3cb72U, 0xbe84959e3f0555cdU, 0x3fbe7226c032f202U, 0x3eb0ac173ff3cf46U,
  0x409663a3c02014c4U, 0xc0842dadbff9c4a7U, 0xc08ef74740d679b6U, 0xbfd8663f409252bfU,
  0x404159dec0753e6bU, 0xbf0f4dfabfef868eU, 0x3f58364740462588U, 0x407ff2e2bf9422e1U,
  0x404c7656bf647902U, 0x4092678ac0513d22U, 0xbef76a8dbfe28567U, 0xbe49f5f1bd6a6b3aU,
  0x3f9508593e1747beU, 0x3fc7e10d400951e3U, 0x4058ff88409478c3U, 0xc088e7ee40acf5cfU,
  0xc068ca37bfb89418U, 0x3eb79adfbfbc648eU, 0xc06111de3ef41bc0U, 0x8000000080000000U,
  0x8000000000000000U, 0x8000000000000000U, 0x0U, 0x402687d380000000U,
  0xbfad17e13fac9a47U, 0x3f75ec354050ccaeU, 0x3fe47dc6bf8d6633U, 0xbfa1391a403174c2U,
  0x8000000080000000U, 0x80000000U, 0x80000000U, 0x0U,
  0xc09d00eb00000000U, 0x415e19d0bfd8baecU, 0xc04bfa2140e96240U, 0xc08445bcc0b1dbf6U,
  0xc1254baa4144d1feU, 0x3f579effbdf368bdU, 0x3f576af93f40428fU, 0x3fd5b3cdc016314aU,
  0xc0614deabd273b48U, 0x3f66b0533f3beb80U, 0x40a37ec5bfcc2915U, 0xbeb822703f7d07c6U,
  0xbf413439be4471b6U, 0xbcee293d3ff5bf41U, 0x3fd206263fcd706cU, 0xbf824fb34013b5fcU,
  0x3f8a6ba1bfeec125U, 0x3f54eb4f3c49cd3bU, 0x3e95374dU, 0x0U,
  0x0U, 0x0U, 0x0U, 0x40a9fdec4067d8dbU,
  0x3fa51479c0887d19U, 0xc04b85a1bfdd1050U, 0x3f76a882c098f442U, 0x3fc949683fde2c8eU,
  0x3ffefd36404b96eaU, 0xbe813bd3c023a3f6U, 0xc08a1baf40144b4cU, 0xc07d0e8a3e321d69U,
  0xc02a5781bd71b28aU, 0xbf1549ebc038ed74U, 0x40479a86bf026c8eU, 0xc02c976ebf337705U,
  0x4071788140ee6e04U, 0xbfca2185c0acfd2eU, 0xc0818e86411110d3U, 0xc0fe353ac00e49d2U,
  0x409ff6f341034c4fU, 0xc06b2ba6c0a1bf3fU, 0x400eb69b408b1d4fU, 0xc01ed6f73f8d8f7aU,
  0x4036765940d30aa2U, 0x3f45d149bf466ad5U, 0x3e75498ec06fcc02U, 0xc02938273fffcc27U,
  0xbf9af782c01ff0cbU, 0xbdc3b7fb3f763af1U, 0x3f0918cb3f964afaU, 0x3f29c89dbfae21d0U,
  0xbfeef452be37cc6cU, 0x4008758d3fdee3a0U, 0xc0685ec2c01a4b95U, 0x4082b5703e91330fU,
  0xbe28493ebf7fa858U, 0x3f3b969b3fa33b14U, 0xbd3e22aabe7dd854U, 0xbea56c853fa2e7b7U,
  0x3f80ce9ebda5de6eU, 0x3ef4372d3ef9036bU, 0x3f2edb603fc36731U, 0xbf2e9d4aU,
  0x0U, 0x8000000000000000U, 0x0U, 0x0U,
  0x404ae76f3dfb859cU, 0xc03821293fa779a8U, 0xbecbceb04096f205U, 0x3eb2d1ed3dd6da3aU,
  0x3ef26ae0404874b2U, 0xbf18d9cabe5da510U, 0xbfaa630dbf6bf799U, 0xc02dba85bfdfcf9cU,
  0xbf2c8c1fc01aab9fU, 0x3fc35b983f8803d3U, 0xbef07ad53fe5de70U, 0x3f58b3c83d967683U,
  0x3f4d4438bda201daU, 0x3f7382e83f2c2f31U, 0x408a2903c075adb8U, 0xc06519c1bfc3c67dU,
  0x3f29348040814637U, 0x40a80f16c05dcc54U, 0x4048bd7cbf0abc6cU, 0xc00a88154052f7acU,
  0xbf173657bea5933cU, 0x3d803812beb74180U, 0x3f16fa203fc8b8d6U, 0xbe80e92dbe6f84a2U,
  0x3f6102903fdb7950U, 0x3f9d909d4052f91dU, 0x40642624bfc72bc8U, 0x0U,
  0x8000000080000000U, 0x8000000080000000U, 0x80000000U, 0x3fdfd3b600000000U,
  0x40dbe87b3f17e80fU, 0xbf4e4c7b408022e2U, 0xc062fd3ebd8604ceU, 0xc052b0e83e8ea537U,
  0xc01688253f66f6d2U, 0xbff7636c411a50cdU, 0x4033acc4bf7d074bU, 0x3efc539f4040cba2U,
  0xc04f63ab405e599dU, 0xbf65911f3f448ff1U, 0x40452191bff30e5fU, 0x401d4de7bfbbc1aaU,
  0x408569f540459483U, 0x3f4e3ae83f4b3987U, 0xbc9d52963d7c0ad4U, 0xbdfc4eb83db8e0e0U,
  0xbe80b8ce3f65576dU, 0x3daf37dabc1a8e4cU, 0xbf0a11b8be5fcbe5U, 0xbd9ab61abed85109U,
  0xbed4814f3eb23327U, 0x3eabc075bf3d7364U, 0x3f1a4ee1bec724a2U, 0x82ed776b3e806873U,
  0xbe25b494be893d6aU, 0xbe05fa69beb4a743U, 0x3f8d9683bda009e8U, 0xbe527d263f179cdbU,
  0xbdd08992bd11d90cU, 0xbe1eaa273e7048ceU, 0x3e40e052be6fd05cU, 0xbe60f60004005891U,
  0xbf84dff601f5c091U, 0xbeaa55a03dda291aU, 0x4203da6bef0992dU, 0x3ea3ffda3dc8911dU,
  0xbee92395bd9e89a8U, 0x3ff441e0bf75c6ccU, 0xbde475cebe5ba650U, 0x83a9f6d2bec113c4U,
  0x3f25e886be4b46faU, 0xbe8e6e5ebe81b7a1U, 0xbe5f829abdf0fbbaU, 0xbfa6217a032d3c87U,
  0xbe9bf132be61bcd2U, 0x3c3c1c56bc5cfdcbU, 0x3abb86dcbcc20d3aU, 0x3cdc4d2a3c4ca419U,
  0xbd2cf5213cfd4b0aU, 0xbcb604803bc41e81U, 0x3c65ad523c61977bU, 0x3c65d0f23cff7ebdU,
  0x3dada4ef3d6c0503U, 0x3c78529ebcb69b84U, 0x3b3f999c3d02a416U, 0x816d85d6bd11a73bU,
  0xbadad8e63b712c02U, 0xbc8449453cb0a60fU, 0xbbc5eb6f3c1984a5U, 0xbcfac20fbc1f84beU,
  0xbcd58c10bc2efa75U, 0xbb768f6bbd0e2053U, 0xbc6becdbbd27c890U, 0xbb2b52fb817ae291U,
  0x3c88ccf581e96cbcU, 0x3d9f3ade3d2e97a5U, 0x804e92cdbd13baccU, 0x3ca894cfbce1e623U,
  0xbc821f8dbcbb220aU, 0x39aecd57bc8cb58aU, 0x3ce7faad3c98fed8U, 0x8087e52d3b296c14U,
  0xbccacb4ebd4ef017U, 0x3bfd32d63bde5b53U, 0xbb1a70673c85c62aU, 0xbd86279380904351U,
  0xbcb53771bcb885a6U, 0xbcac94d03c960f8cU, 0xbd0a655d3ca7956aU, 0xbcd9d7833c5b8efaU,
  0xbbe9ce5b3c5c74feU, 0xbd47824ebb37c191U, 0x3dc1457a3d45a8ffU, 0xbb8f04443c1fcf07U,
  0x3da1b9ee3c9e32daU, 0x398338e6bc810ad5U, 0xbbd7a36bbcd1f1e1U, 0x168c463bbaf9d06U,
  0xbbc5fbe6bbc382d3U, 0x3c44a7debc5bb5dfU, 0x3c676e81bc9f53cfU, 0x3ca2b4973b903f7fU,
  0xbcdac582bcc5615fU, 0x3c53d63d3ba9fd33U, 0x3ce512b8bd333b3cU, 0xbc4a312900f4a5c8U,
  0xbc27c3280049a3a5U, 0x3bab005f3bd567fbU, 0x13982abbce21105U, 0x3c96435bbc93c99eU,
  0x3bca1ac43b8a9e1eU, 0x3d211622bb91914aU, 0x3aad30873c002671U, 0x17adcd3bd53de0aU,
  0xbcdae9c6bc4688c5U, 0x3c98345ebc83c771U, 0xbc1a0b433bfbf759U, 0x3be0796100f793b0U,
  0x3c42684abc091a15U, 0x3d036b71bc9c35b6U, 0x3ca00d68bd445db9U, 0x3c8b28823da0ace8U,
  0xbc003b693c354f2bU, 0xbc5a85ddbccfd99dU, 0xbc01f6f6bd433501U, 0x3d47a224bd244fd9U,
  0xbd669e11bc0275ecU, 0x3c1d7a383db5630eU, 0x3c8e57383d43facdU, 0x113fb983d73c204U,
  0xbd69aa19bd04b73eU, 0xbd068c6dbc36e70fU, 0x3cee3505bc115d19U, 0xbd8e73bdbc899703U,
  0xbcdb5da9bd0486e1U, 0xbc7aff41bb33de91U, 0x3bc9d1dc3d098022U, 0x3af17da180338cbeU,
  0x3db431ef810b25ddU, 0xbd4b6f14bb661977U, 0x8172f2e9bd023fc9U, 0xbd17889fbd3ea29cU,
  0x3d068f5f3a0ca8f4U, 0xbcb5c785bc72ea84U, 0xbc1194b0bc2d76daU, 0x81bcf0de3c10ea34U,
  0xbcddca7fbc484455U, 0xbceca7d6bc056bffU, 0x3d2050473c578036U, 0x3d0091aa81a76844U,
  0x3cde7b60bd3c292eU, 0xbd6015163ce799c1U, 0x3cc782c9bcbcc6d7U, 0xbc7583e3bd0c7026U,
  0xbcea47d9bcebd7e6U, 0x3c9bcdf1bca38211U, 0x3ce45053bca5ad30U, 0xbb0c9e8a3ccbcaeaU,
  0x3bfa14443e1e59c9U, 0x3c0015893c9fbd10U, 0xbb1e3914bb571393U, 0x827f36cb3cd09d49U,
  0x3d324e073b237203U, 0xbd378b6f3ab097d6U, 0x3c7745dc3c4b289aU, 0xbc52cb29bbe9186dU,
  0xbc7b834fbcda0a2eU, 0xbcf38c07bc16a267U, 0x3c50758fbb78c2a8U, 0xbd3f49bd82315257U,
  0x3bf2efa3812cb9beU, 0xbc0748d53ae4cf35U, 0x8220f745bb69a99aU, 0xbbbf46c0bc5df7b7U,
  0xbc283e40bd068423U, 0x3b725006bdacc24aU, 0x3cfcd5a83cf4f66aU, 0x80fc904c3d62c2e4U,
  0xbb9db23abca7033fU, 0xbbec1ce1bcc1ba5eU, 0x3cc4c578ba630718U, 0x3cbf842e82667c3aU,
  0x3cda2f5dbd4b0e10U, 0x3a67d6c63d6a4b04U, 0x3c90ddfa3c9b7a12U, 0x3d2068f83d30b1f5U,
  0x3ae6f18c3c2662dcU, 0xbd1f1d9b3c6ed5adU, 0x3d1167793ca0f72cU, 0x3cac68c5bd7d76feU,
  0x3d0c5e3c3d3c61aaU, 0x3c9be0213be0e957U, 0x3beb4576bda316a9U, 0x8155ff8e3c7fdbd0U,
  0xbcdccfaabc44e2e3U, 0xbb6a5a353d0ab459U, 0x3b941df33b0ae663U, 0xbcd29f7dbbbdd479U,
  0xbba511cabd436e89U, 0x3c42b39abd41c1cbU, 0x3d5740ee3d04f72fU, 0xbb01012f8038fefeU,
  0x3d0d82a600dafb0eU, 0x3bf666a5bc288791U, 0x813ca334bc8dc468U, 0x3c81973e3d4cdd1aU,
  0x3cab3127bcf02098U, 0x3d03984fbd61215dU, 0x3d0d7243bd011c10U, 0x813ba6533c02f4a7U,
  0x3c3e6e783c31de54U, 0x3c93e2b4baa79c5fU, 0xbbffde643bd1e979U, 0x3d4d0b3f0181659aU,
  0x3d44fe043ad41e32U, 0xbd2fd4b3bb91f5afU, 0xbc005cd8bd842859U, 0x3ca8de113d2254fcU,
  0x3d1c4e873cb541e6U, 0x3d4ac7513d8a60b6U, 0x3d82fdc13ce7b5e3U, 0x3c3e099ebd271833U,
  0xbc9ae2f83d08cf05U, 0x3d06ff5a3d54d47aU, 0x3d9524313d401b67U, 0x30b548bdde48feU,
  0xbccf03e43d696a86U, 0xbd807c363cef07b2U, 0x3c8d27413bd548b2U, 0xbda79164bc9ade09U,
  0x3cd3b7923b9190c8U, 0x3c385f9c3d7cd804U, 0x3c175b643d5ef809U, 0x3d185d9e0189da47U,
  0xbc4e9fbc82035211U, 0xbc2ab6f63cebb917U, 0x8281f72cbddf5fb2U, 0x3c39f2febdf269e4U,
  0x3ce7d2a4bcfe3666U, 0x3cd54de33c9e443bU, 0x3b36b282bbf8a4d1U, 0x823e54c33d1d91c7U,
  0xbd4ce5c2bd8a8cc7U, 0x3bfce138be448616U, 0xbd0a6a74bd4c0127U, 0x3d416cd082801b24U,
  0xbc4c4353bcf901b7U, 0xbd5cbe6fbc8b0939U, 0xbb256a0e3ce8664cU, 0x3db4845dbc831a4dU,
  0x3d56a1153d34e170U, 0x3d238c04bd103aacU, 0x3ca77b01bcc0ddedU, 0x3c328342be0e1f0fU,
  0xbd700971bc6b160fU, 0x3d84432ebd6143caU, 0xbbfd53303cba88f3U, 0x19ecc85bd2a049bU,
  0xbd9a4c46bd1c38aeU, 0x3c6cd3ee3ababac3U, 0x3b18f4e9bd0e1648U, 0x3dd8dd02bbf77d78U,
  0x3d86da5e3cda3a8dU, 0x3cf14507bd339eb9U, 0x3d15bbd63d2401d2U, 0xbd73bc7180f5a123U,
  0xbd1c186c01129474U, 0xbc976694b9d92c87U, 0x812fda2fbdbba452U, 0x3b882eedbc2fd61eU,
  0x3c1f25da3d201251U, 0x3c9d43483d21ceaaU, 0xbc57e2cdbce38192U, 0xdb10283d69361dU,
  0x3d8b427e3c833f70U, 0xbcd0dacabc56f6d4U, 0x3b045a313c074963U, 0x3d232d69018150d3U,
  0x3d3b41c0bdcdc848U, 0x3d0a43d63d518837U, 0xbb2a7e903cfe3f8bU, 0x3bd2192e3d6553b1U,
  0x3d0e8ed93c63eaa5U, 0x3bb9763c3c8cbdecU, 0x3d4a15bfbde5cdadU, 0xbc5d6726bda5c493U,
  0x3a4cab4cbd91cb17U, 0x3bde7d183b62557aU, 0xbbca0f8fbd790762U, 0xc8d5e13d8c0badU,
  0xbc03cb663d064674U, 0xbc53e7923c8bff9aU, 0xbc8ea4c53c585792U, 0x3cb98adcba8a0853U,
  0x3a0745f5bcce3276U, 0x3d47317fbca54383U, 0x3b899f333ddc1dd1U, 0xbc68ae2f002e8dd5U,
  0x3cbd66b1818de6cfU, 0x3db1513a3ba58296U, 0x677041bbbabad6U, 0x3d011835bcc6c418U,
  0x3c8ea7e7bcc4e485U, 0xbd4cc62cbcd13bfeU, 0xbcbb6aed3c397bb0U, 0x141408e3d64df51U,
  0x3d0ed3d3bc3b63baU, 0xbc4e86d23bec1563U, 0x3c027ca9bc6796bcU, 0xbcc3dcc800cbaca3U,
  0x3ccdf8fbbcb6f1b2U, 0xbc97992c3d0efe55U, 0x3b3c7c62bbe0eb2dU, 0xbd0798de3c778e44U,
  0x3c811bedbc082e79U, 0xbc29f2383c906987U, 0x3c1a7a793da5454bU, 0xbc63117ebc0ba67aU,
  0x3d2d2376bd4ab3ecU, 0x3c2190d2bc388e15U, 0x3c46baa1bd0914a6U, 0x818d074e3c53e3f8U,
  0x3cad774fbccbd7ecU, 0x3d4b0f0a3d91446cU, 0x3ad524bfbae9c152U, 0xbb225a88bd00740bU,
  0xbb1ab83e3c7bb5c9U, 0x3d0405483cd3ccbeU, 0xbc809ec03d66319aU, 0xbcbbd48300a09fe2U,
  0xbc42504200ef35baU, 0x398e536b3b105555U, 0x813483debb885d3dU, 0x3bad643cbbeeb976U,
  0xbc41dfbd3b993054U, 0x3bf1c26f3bb3c7e0U, 0xbc8a10953ae64089U, 0xa7d7c23ac05666U,
  0xbbba43053bc73e94U, 0xbd064ab0bcb0bcd9U, 0x3cb0488abccd9fc9U, 0xbc21400f01887205U,
  0x3cab58163c27fefeU, 0xbd20a3b73cc5a7f2U, 0x3d279240bc68bdd6U, 0xbb9173683bc43ac6U,
  0xbd16c034bc8f617bU, 0xbc898bf1bd46f293U, 0x3cf50dd43c4d8bc1U, 0x3d149ea7bce78c84U,
  0xbcd41245bd8b8024U, 0x3b31b3c43d703cb8U, 0x3d1a7cdabc57e135U, 0x1d26f4ebc1a22ddU,
  0xbc9af0c03c61ed0eU, 0xbc004b9abceb3d5aU, 0x3da0c51a3ca9cc95U, 0x3d160b213d1beff5U,
  0xbd1a02b13b221092U, 0xb90a72e2bc0db463U, 0x3c1a1fce3db2121bU, 0x3c0aa05d01a049b8U,
  0x3da5ce95009a4e4aU, 0xbcdec8e73b1bd2e1U, 0xfd84223d53c7a7U, 0x3d906098bcd80898U,
  0xbd5c22503be60c2bU, 0xbd20c644bd51a8deU, 0xbd37b198ba221a50U, 0x1a75087bd43b7f7U,
  0xbcfc45eabd43b5bfU, 0xbc7ce59bbb55efbbU, 0xbc75e04dbc24dd85U, 0xbcbfa6c481ac7af3U,
  0x3d3fc8e83d1ab467U, 0xbbfd28f6bd8413f0U, 0x3cdd9d0cbd090723U, 0xbbb2cbeb3cd63fcdU,
  0xbc54127abcb95310U, 0xbd0a1cbabcf453adU, 0xbd714d1c3c9b5406U, 0x3d2847aebdad418bU,
  0x3add75dd3d80583eU, 0x3ac6e9d43ac9f100U, 0x3d9432f4ba98045fU, 0x975e96ba325a19U,
  0xbc27752fbadbded4U, 0x3ce168033bb9dc4eU, 0xbdb5b7d83c893fb8U, 0x3d9fc6d33c2cc821U,
  0xbd667d2dbd31eb65U, 0xbd1d9c383c829b27U, 0x3d5559fe3936afd8U, 0xbd2b633e00402f05U,
  0x3da2b455002dc593U, 0xbd801dfd3d757148U, 0x81850e1c3d8c74f3U, 0xbd2f0ae0bd35ace1U,
  0xbd72be5e3d090368U, 0xbe1f0ba6bd08a21dU, 0xbd2445e8bc767d18U, 0x4d383a3c0486bdU,
  0x3cd5548abe6521d3U, 0x3c52c997bc74c0e8U, 0x3c76fa2c3cc65399U, 0x3c929cf581c113e8U,
  0xbd883f39bcb0f160U, 0xbdbb8641bbff1e94U, 0x3cd6d605bc363e72U, 0x3ceb9174bb6a8a5cU,
  0xbcae1b56ba264d58U, 0xbca83e1e3d4251b4U, 0x3da21e38bd59c268U, 0x3cdf29ee3b2d55a5U,
  0xbcc418a23d1636d8U, 0xbaf1057d3d0a6392U, 0x3c84fd14bb4e50d0U, 0x826038c13ae5f07eU,
  0x3c8da87bbc89d690U, 0xbd7e402a3b2de6c7U, 0x3d0ac72dba78e13fU, 0xbcda73d43c3cf515U,
  0x3c4622da3cd21ed2U, 0xbca77bb8bd145d58U, 0x3c14b41b3c2b1c5eU, 0x3cd679278205b6daU,
  0xbd4b3f64822fddadU, 0x3d8e650fbca8789fU, 0x8142454ebc5146b1U, 0x3ca8bdc73d047cdbU,
  0x3ce78dd03d0c8b87U, 0x3cc111fb3dfbf528U, 0xbcbdaf45bd2d81c4U, 0x821ae73bbcd3e889U,
  0x3cddd2edbcdf98a8U, 0xbc228006bc30382aU, 0x3ca6ed813bfe37e2U, 0xbd4a1d1181f63c88U,
  0x3c9f7e63bbcb80e5U, 0xbd04b61ebd0fe139U, 0x3b282d6f3b94f6f1U, 0x3d63dd7a39b71beaU,
  0x3ba23b67bb9d7cf7U, 0xbd49dccbbd11cf59U, 0xbc3c517dba18ec34U, 0x3cbd1a12bcc52200U,
  0xbd4e552dbc00c503U, 0xbbd9533a3cf5b566U, 0x3c109e343d24360cU, 0x1adafdf3ca46081U,
  0xbc8bb29abcbc166fU, 0x3c10afd5bd177756U, 0x3d5401233c035060U, 0x3ca46a303cf57418U,
  0x3bfcf6913bbbda3bU, 0xbca876133b152691U, 0x3c907051bcc43364U, 0x3cdb764a02359be7U,
  0xbc98142e0235f81aU, 0x3cb1abd93cac8772U, 0x31aef6bd45e0d7U, 0x3cb66a5bbce9be58U,
  0xb9938ed73c8e592eU, 0x3d3be097bc2b7ea0U, 0x3d5e0bf73c9c46f3U, 0x8ca30abd73bdb6U,
  0xbd3e5442bc8a92aaU, 0x3c2807f9bcd009e2U, 0x3c97091f3c7a56dcU, 0xbd05f3ef020a18dcU,
  0xbd01e34cbc7ba44eU, 0x3b98b0e7bd177c63U, 0x3cf381f23a28bcfbU, 0x3c97c4debcd225f3U,
  0x3cc478bfbc9a85bfU, 0x3d406a3fbc811375U, 0x3d66ac253c0da083U, 0x3d0fa6d9bd79d593U,
  0x3d0314d13bfb3a2dU, 0x3c1928533cb91190U, 0x3e0341573c972de3U, 0x15a30033d0470c5U,
  0x3b16efe23bee32deU, 0x3cf4eae7bc0acf7aU, 0xbd934f1e3bcc6fa8U, 0x3db37eabbb81d301U,
  0x3d48b50a3bf2f29bU, 0xbd43bd733d14e445U, 0x3c90a5863c98cf70U, 0xbce962ed821667c5U,
  0xbd2a51580287042cU, 0xbb084e343c44f739U, 0x824581bfbd036061U, 0x3da081ccbd1dede2U,
  0x3a5545c53d823eecU, 0x3ca5ba82bc9ea40eU, 0xbd9bb2533cd100a8U, 0xb3c66a3da3a2beU,
  0x3c8683063b465aa0U, 0xbd384857bc94f91dU, 0x3d3846933ce05d30U, 0xbd32bacc019f6164U,
  0x3daff5ddbd7c144fU, 0x3d0125dbbcbb997eU, 0xbd209c0ebc8e38d0U, 0xbc7b41043c7aa038U,
  0x3c9fe1153cc972a8U, 0x3ca571ff3d42d273U, 0x3b3038ef3cdf29eeU, 0xbcdbdc89bbcce278U,
  0xbd1384f33d049076U, 0xbcc16815bcde2100U, 0xbc5ea56f3c1b7f6eU, 0x80b1e6eebcb8b645U,
  0x3b2d6ea8bbc8bf8cU, 0xbc98234cbba4e485U, 0xbba986f5373e29c2U, 0xbcb4b5323b45f516U,
  0xbbe5c1cabb0a5d7eU, 0xbc1da765bd02d2e2U, 0x3cafd5763d30776fU, 0xbbfc07578152a50dU,
  0xbd646c7d81a3298fU, 0xbce69f35b8e3d1d1U, 0x80750acbbd1df5d4U, 0xbc69bf22bd690e44U,
  0x3d8260013c941b12U, 0xbca007953d0c35feU, 0xbbbdf5003ca64982U, 0x8025447bbbf3b384U,
  0x3c65311b3cb1cfaaU, 0xbd3304e3ba73dd32U, 0xbd4f0ccc3bf43697U, 0x3d249910804f13beU,
  0x3c8e89063c9bc2dbU, 0xbac8be2cbd88bcd4U, 0x3c9e71d7bbe8a9dbU, 0xbcd531763bd9ed86U,
  0xbbaceee33c61ed19U, 0x3cb48f80bc5c1037U, 0x3d8bf9d13c78d3d6U, 0x3bc67dd6bc86ebe3U,
  0xbbd7287d3ccc448eU, 0xbb7deddc3c4f9decU, 0xbc7d00f23ccf1a15U, 0x1da8563bc3f4a51U,
  0xbbdd2469bd9ce02aU, 0xbc33ec5fbc191121U, 0xbca14a08bcb0eeb1U, 0xbc0ddefa3c3cd795U,
  0xbcd5146a3b9a9e1cU, 0xbd50c4a63c3dc403U, 0xbb2b6a363cf69e6dU, 0xbd02cf40015f6a34U,
  0x3d4ee7cc01dcf80cU, 0x3d476ebc3bcd3834U, 0x188b283bdab8292U, 0x3d5e199b3cb827ecU,
  0x3c3a224c3bc2acbdU, 0x3bfccdb3bbc70034U, 0x3bb534f5bc1d1b34U, 0x1f9fe463cd58ac9U,
  0xbb61a526bcca9fb0U, 0x3c298903bc6f70beU, 0xbd1b8eb53c814a4eU, 0xbd0b4c2d012bb017U,
  0xbd252b62bc156e01U, 0x3c1d3c6d3c95132fU, 0xbc867f013b0601e6U, 0x3cbb9b693b8dbefaU,
  0xbbcacff13c4c0db0U, 0xbba93c1e3abf6bffU, 0xbc8f0df03d9a1b28U, 0xba9de1c9bd302d8dU,
  0x3cb772e83cd66611U, 0x3c6ae6f8b9871684U, 0x3cb10cb9baeaeecaU, 0x8d0ed33b41cce2U,
  0xbb37fd023bad8abaU, 0x3beb30423d6f24b8U, 0xbc0ae25abc1362b9U, 0x3c94a8c0bbe0553cU,
  0x3c4a25f73bb23d71U, 0x3be0befcbc4f8d46U, 0xbd0976643ade3614U, 0xbd0cfb7d81132c3dU,
  0x3cd9da6b006aea7cU, 0xbcc556cb3d56a1a9U, 0xeb75003ba84bcdU, 0xbca7b2943bf74075U,
  0x3c72e4053d190b2bU, 0x3c657bfcbc74845eU, 0xbca847b23d639df2U, 0x8114f212bcdc73a1U,
  0xbcc8b0953c3c55aeU, 0xbcb397f23caf4a99U, 0x3c26b5223c4ab750U, 0x3c1e418580c499b0U,
  0x3c414629bcc7ddbeU, 0x3d01719ebdb9e2c9U, 0x3cb28441be11c7a5U, 0x3bc443443cb32b8fU,
  0xbcab3eab3de12f25U, 0x3d1b02f43d23e4c6U, 0xbe1a61f7bcbd0badU, 0xbe1390e93d0a3ed9U,
  0x3d16d7073cab379bU, 0xbc9b61123de640a5U, 0x3d3a59b9be00b230U, 0x2a3b5cabcbb84cfU,
  0x3d2c4260bc57dd2eU, 0xbd00a1dfbb9f365dU, 0x3d4170f4bcb34649U, 0x3ab79cc23d2d0fe8U,
  0x3dc2cc9bbda44636U, 0xbd29e95a3bef8e17U, 0x3d370bbfbdb3a2a1U, 0xbd26eca202ae693cU,
  0xbcba6c8501f8ee98U, 0x3b55cfd4be1fcc89U, 0x245030abbb32253U, 0xbe0797723d4127c3U,
  0x3d8f7facbbfafff4U, 0x3ddefbd7bdbbd256U, 0xbc4c7741be096f0bU, 0x19cf304bda27e82U,
  0x3d29a1a73d994565U, 0x3c4d2e67be3a02b6U, 0xbe1b8b98bdf95ca7U, 0x3d1b140a018fba31U,
  0xbd6bed943c169fa2U, 0x3c3ce3fa3cfd0583U, 0xbd09c676bd9dea37U, 0x3c5edd2b3baea8b3U,
  0xbc261de3bd224d24U, 0xbcb044623cf733d8U, 0xbd9e4d15bd41a3d2U, 0xbc03a860bcb25f56U,
  0xbdb8701a3d5a7238U, 0xbd010a6a3d0016aeU, 0x3c7032f7bbc4ddc1U, 0x823909343cf967ffU,
  0xbca8b289bcc78da8U, 0xbd57d5693c831251U, 0x3c9ec2b8bccb2c0eU, 0xbcc6763c3bce8d72U,
  0x3d3d92f4bd38e22dU, 0xbcab28ec3a2aca3bU, 0xbd9ae621bc17d65bU, 0xbd11fe4080cf6fcdU,
  0x3c188aa6819d99eaU, 0x3d0efe78bc0dfae2U, 0x810b68c73d7428cfU, 0x3cde9ce1bda7b378U,
  0xbd9bdb64bd13ff91U, 0xbd5200b4bd93ea01U, 0xbd709c6c3d4c92efU, 0x817d6c6e3c7272baU,
  0xbc3080543cf81a3aU, 0xbc44fdb23be6360eU, 0xbd8f4966bdca6aebU, 0xbcb3add301c32049U,
  0x3d3183f83d04a590U, 0x3ad199703caad695U, 0x3e11c0aebd0fd611U, 0x3dd43c953c48e4c2U,
  0x3d9b4d9b3d8a986fU, 0x3d84ea3dbd8d8de7U, 0x3b061875bcb5cafbU, 0xbd106b89bd4de433U,
  0xbd91e753bacf4960U, 0x3d7384f53bc1c621U, 0x3d6af115bd4746ffU, 0x181820bbddb5d8U,
  0xbdbaf2d23d88c76fU, 0xbbe5969e3da45da6U, 0x3d6e51bebcabee0bU, 0x3d0c479a3d3c5219U,
  0x3d1276e7bcf4353bU, 0xbd7584c73cbdac3cU, 0x3d811da13c1a62d4U, 0x3dabbc70823ddb6eU,
  0x3dfab7de014d1e28U, 0xbc8318c63d7df170U, 0x8071a45c3ba4e897U, 0x3c8da3733da7945eU,
  0xbe1236da3c95918dU, 0x3db07c9abd6b6cc6U, 0xbd78e0bfbdc96e6cU, 0x813b673dbcc0a937U,
  0x3ccf6d393cf071adU, 0x3aa2b844bcd8fba7U, 0xbc80db5b3c7e3292U, 0x3d9ef71f8164ec12U,
  0xbc8c0707bde55c73U, 0xbd20cc2bbd2e6e63U, 0xbcb78fa83babb79cU, 0xbd289561bd3490acU,
  0x3c4fdbd33d12e9c0U, 0xbd0461323c86d62dU, 0x3c2f194b3d7a0d60U, 0x3c52fb933d8b210bU,
  0x3d713c7e3c51d154U, 0x3bf67362bdbf64e5U, 0xbc5520a63b3245c8U, 0xc5895dbcc17aa2U,
  0x3b7c3321bcb5a2fdU, 0x3d23e550bd134af6U, 0xbcd37d9fbc73ee60U, 0x3d3c5e373b5147bbU,
  0xbcd00edbbca151faU, 0xbd8a43483baf6ceeU, 0xbd3dee73bc7e499aU, 0xbd43b6f2021a005dU,
  0xbc8daf8301e85c1dU, 0x3d076de5bcd2f3eeU, 0x80bd88603d99a75aU, 0xbd958be2bce24ddfU,
  0x3c6a35e2bc974c8eU, 0xbdce7fda3d5fdb0aU, 0xbd8663f6bd9ef67aU, 0x1b2eef2bd1e612eU,
  0xbd7c3faebd9f46f3U, 0x3d32e1f03d15b9f9U, 0x3cbbf2a23c8af6baU, 0x3cc3be3e8149764eU,
  0xbc266db43d0f9ee2U, 0xbcf422a83ce5689eU, 0xb845ed533d248783U, 0x3c0ea196bc8a4082U,
  0x3c7ef10f3d0dffb2U, 0xbc89e17dbc3ae489U, 0x3db0b3f1bd33153aU, 0xbcd319e43bdfc235U,
  0x3a17f0a0bd1d7515U, 0x3d18087cbcd94573U, 0xbc52772dbda28145U, 0x13fe4683b0fbc6cU,
  0xbd9018cb3d4cf60bU, 0xbcc792d13a619726U, 0x3c06c3cbbcb2c145U, 0x3c221db5bd611112U,
  0xbd30b1273d422066U, 0xbd4b02cbbcea9fadU, 0x3d7368493b0e2756U, 0xbd1d005d80748d6bU,
  0xbbf349b080dc4072U, 0x3b2b694fbd5b2076U, 0x3e4eb53a76ad00U, 0xbd452b97bb9b4ae5U,
  0x3d54deecbd86d0c0U, 0xbd1ff4103c1c592fU, 0x3c203ca3bd33cc1aU, 0x1831c3a3b195d5dU,
  0x3d88ef6fbd11d14eU, 0xbc1a93883d1f0321U, 0xbd2b48793d989fcbU, 0xbcf5cc1000494691U,
  0xbd045ffebd7ddbe1U, 0x3d81d05ebc743f68U, 0x3cb00790bd2ef113U, 0xbc0f7d003ce182d4U,
  0x3d0e7da83c0aa228U, 0xbd80b91e3d3bc426U, 0x3d844b05bd15e0b1U, 0xbbfe091dbd13754cU,
  0x3b5566be3d3a79c0U, 0xbcf3721cbd1a2b03U, 0xbd505f3c3c963db6U, 0x8141fc9d3b0a27dbU,
  0xbb0e5fb3bc956551U, 0x3cddf40d3cf32e18U, 0xbc45e09e3c81d8f0U, 0xbbfe48bb3c949965U,
  0xbbefeed4bcf26efaU, 0x3d19c58ebba75563U, 0xbcb76b28bac470eaU, 0x3a0b38618194d09eU,
  0x3d13940d80e3d826U, 0x3d0432403de684deU, 0x81cf4e91bd25dc97U, 0x3d249946bc827536U,
  0x3d2b055abd8f5514U, 0x3d6d08793d119512U, 0x3c7c023dbc7de649U, 0xee090c3d023109U,
  0x3d0b4d17bc6e29b9U, 0xbce4f7eabd599f9eU, 0xb8c4d0c0bc5821abU, 0x3aca4bce803204f5U,
